unsigned char model_files_model_tflite[] = {
  0x1c, 0x00, 0x00, 0x00, 0x54, 0x46, 0x4c, 0x33, 0x14, 0x00, 0x20, 0x00,
  0x1c, 0x00, 0x18, 0x00, 0x14, 0x00, 0x10, 0x00, 0x0c, 0x00, 0x00, 0x00,
  0x08, 0x00, 0x04, 0x00, 0x14, 0x00, 0x00, 0x00, 0x1c, 0x00, 0x00, 0x00,
  0xa4, 0x00, 0x00, 0x00, 0xfc, 0x00, 0x00, 0x00, 0xe0, 0x1c, 0x00, 0x00,
  0xf0, 0x1c, 0x00, 0x00, 0xbc, 0x24, 0x00, 0x00, 0x03, 0x00, 0x00, 0x00,
  0x01, 0x00, 0x00, 0x00, 0x10, 0x00, 0x00, 0x00, 0x00, 0x00, 0x0a, 0x00,
  0x10, 0x00, 0x0c, 0x00, 0x08, 0x00, 0x04, 0x00, 0x0a, 0x00, 0x00, 0x00,
  0x0c, 0x00, 0x00, 0x00, 0x1c, 0x00, 0x00, 0x00, 0x40, 0x00, 0x00, 0x00,
  0x0f, 0x00, 0x00, 0x00, 0x73, 0x65, 0x72, 0x76, 0x69, 0x6e, 0x67, 0x5f,
  0x64, 0x65, 0x66, 0x61, 0x75, 0x6c, 0x74, 0x00, 0x01, 0x00, 0x00, 0x00,
  0x04, 0x00, 0x00, 0x00, 0x84, 0xff, 0xff, 0xff, 0x0d, 0x00, 0x00, 0x00,
  0x04, 0x00, 0x00, 0x00, 0x0c, 0x00, 0x00, 0x00, 0x64, 0x65, 0x6e, 0x73,
  0x65, 0x5f, 0x44, 0x65, 0x6e, 0x73, 0x65, 0x34, 0x00, 0x00, 0x00, 0x00,
  0x01, 0x00, 0x00, 0x00, 0x04, 0x00, 0x00, 0x00, 0x12, 0xe3, 0xff, 0xff,
  0x04, 0x00, 0x00, 0x00, 0x16, 0x00, 0x00, 0x00, 0x66, 0x6c, 0x61, 0x74,
  0x74, 0x65, 0x6e, 0x5f, 0x46, 0x6c, 0x61, 0x74, 0x74, 0x65, 0x6e, 0x31,
  0x5f, 0x69, 0x6e, 0x70, 0x75, 0x74, 0x00, 0x00, 0x02, 0x00, 0x00, 0x00,
  0x34, 0x00, 0x00, 0x00, 0x04, 0x00, 0x00, 0x00, 0xdc, 0xff, 0xff, 0xff,
  0x10, 0x00, 0x00, 0x00, 0x04, 0x00, 0x00, 0x00, 0x13, 0x00, 0x00, 0x00,
  0x43, 0x4f, 0x4e, 0x56, 0x45, 0x52, 0x53, 0x49, 0x4f, 0x4e, 0x5f, 0x4d,
  0x45, 0x54, 0x41, 0x44, 0x41, 0x54, 0x41, 0x00, 0x08, 0x00, 0x0c, 0x00,
  0x08, 0x00, 0x04, 0x00, 0x08, 0x00, 0x00, 0x00, 0x0f, 0x00, 0x00, 0x00,
  0x04, 0x00, 0x00, 0x00, 0x13, 0x00, 0x00, 0x00, 0x6d, 0x69, 0x6e, 0x5f,
  0x72, 0x75, 0x6e, 0x74, 0x69, 0x6d, 0x65, 0x5f, 0x76, 0x65, 0x72, 0x73,
  0x69, 0x6f, 0x6e, 0x00, 0x11, 0x00, 0x00, 0x00, 0xe0, 0x1b, 0x00, 0x00,
  0xd8, 0x1b, 0x00, 0x00, 0x78, 0x1b, 0x00, 0x00, 0x60, 0x1b, 0x00, 0x00,
  0x48, 0x1b, 0x00, 0x00, 0xb8, 0x0d, 0x00, 0x00, 0x28, 0x0b, 0x00, 0x00,
  0xb8, 0x01, 0x00, 0x00, 0xb8, 0x00, 0x00, 0x00, 0xb0, 0x00, 0x00, 0x00,
  0xa8, 0x00, 0x00, 0x00, 0xa0, 0x00, 0x00, 0x00, 0x98, 0x00, 0x00, 0x00,
  0x90, 0x00, 0x00, 0x00, 0x88, 0x00, 0x00, 0x00, 0x68, 0x00, 0x00, 0x00,
  0x04, 0x00, 0x00, 0x00, 0xda, 0xe3, 0xff, 0xff, 0x04, 0x00, 0x00, 0x00,
  0x54, 0x00, 0x00, 0x00, 0x0c, 0x00, 0x00, 0x00, 0x08, 0x00, 0x0e, 0x00,
  0x08, 0x00, 0x04, 0x00, 0x08, 0x00, 0x00, 0x00, 0x10, 0x00, 0x00, 0x00,
  0x24, 0x00, 0x00, 0x00, 0x00, 0x00, 0x06, 0x00, 0x08, 0x00, 0x04, 0x00,
  0x06, 0x00, 0x00, 0x00, 0x04, 0x00, 0x00, 0x00, 0x00, 0x00, 0x00, 0x00,
  0x00, 0x00, 0x0a, 0x00, 0x10, 0x00, 0x0c, 0x00, 0x08, 0x00, 0x04, 0x00,
  0x0a, 0x00, 0x00, 0x00, 0x01, 0x00, 0x00, 0x00, 0x02, 0x00, 0x00, 0x00,
  0x04, 0x00, 0x00, 0x00, 0x06, 0x00, 0x00, 0x00, 0x32, 0x2e, 0x31, 0x35,
  0x2e, 0x30, 0x00, 0x00, 0x3a, 0xe4, 0xff, 0xff, 0x04, 0x00, 0x00, 0x00,
  0x10, 0x00, 0x00, 0x00, 0x31, 0x2e, 0x35, 0x2e, 0x30, 0x00, 0x00, 0x00,
  0x00, 0x00, 0x00, 0x00, 0x00, 0x00, 0x00, 0x00, 0x40, 0xdd, 0xff, 0xff,
  0x44, 0xdd, 0xff, 0xff, 0x48, 0xdd, 0xff, 0xff, 0x4c, 0xdd, 0xff, 0xff,
  0x50, 0xdd, 0xff, 0xff, 0x54, 0xdd, 0xff, 0xff, 0x6e, 0xe4, 0xff, 0xff,
  0x04, 0x00, 0x00, 0x00, 0xf0, 0x00, 0x00, 0x00, 0x4b, 0x55, 0x4a, 0x3e,
  0x02, 0xff, 0x8d, 0x3e, 0x18, 0xf8, 0xac, 0x3e, 0x44, 0xc7, 0x8d, 0xbd,
  0xf5, 0x41, 0xd1, 0xbd, 0x02, 0xa3, 0x9d, 0x3d, 0xc8, 0xdb, 0x96, 0xbe,
  0x44, 0xb2, 0x35, 0xbe, 0xe8, 0x22, 0x24, 0x3e, 0x6f, 0x56, 0xa5, 0xbe,
  0x1a, 0x30, 0x55, 0x3e, 0xb3, 0xf9, 0x09, 0x3e, 0xbe, 0xa3, 0x6c, 0xbe,
  0x9d, 0x6d, 0x20, 0x3e, 0x0b, 0x8c, 0x7a, 0x3c, 0xa2, 0x4a, 0xb1, 0x3c,
  0x5b, 0x38, 0x30, 0xbc, 0x6a, 0x26, 0xba, 0x3e, 0xd4, 0xad, 0x94, 0xba,
  0x2e, 0xe2, 0xb1, 0xbd, 0x99, 0xf5, 0xbe, 0xbe, 0x6b, 0xc3, 0xa0, 0x3e,
  0xfa, 0x90, 0x02, 0x3e, 0x36, 0x7f, 0xc5, 0x3e, 0xdd, 0xa2, 0x45, 0x3e,
  0x29, 0xcb, 0x82, 0xbe, 0x57, 0x25, 0x04, 0xbe, 0x50, 0x1b, 0xd9, 0x3c,
  0x2f, 0x1f, 0x3e, 0xbc, 0x04, 0xfa, 0xdd, 0xbe, 0xa6, 0xe4, 0x81, 0x3e,
  0xbd, 0x09, 0xeb, 0x3d, 0x58, 0xb7, 0x2a, 0xbe, 0x3f, 0xfb, 0x02, 0x3e,
  0x97, 0x0d, 0x1d, 0xbe, 0x95, 0x2a, 0x83, 0x3c, 0x8e, 0x08, 0xac, 0xbd,
  0x76, 0x15, 0x8c, 0xbd, 0x81, 0xed, 0x3e, 0xbe, 0x7b, 0x23, 0xe4, 0xbe,
  0xc1, 0x94, 0x98, 0xbe, 0x2d, 0xdc, 0x04, 0x3e, 0xd0, 0xf4, 0xbc, 0x3d,
  0xa7, 0x4e, 0xec, 0x3b, 0x1a, 0x36, 0x87, 0xbe, 0xaf, 0x0b, 0x31, 0x3e,
  0xe9, 0x9a, 0xcf, 0xbd, 0xb3, 0xf4, 0x99, 0x3d, 0xdb, 0x9e, 0x6c, 0xbe,
  0x69, 0x37, 0xe3, 0xbb, 0x1f, 0xe0, 0xcb, 0xbe, 0x8d, 0x63, 0xc9, 0x3d,
  0x81, 0x4b, 0xf0, 0x3e, 0x87, 0xa7, 0xc5, 0x3e, 0x0b, 0x52, 0x87, 0x3e,
  0x3d, 0x28, 0x78, 0xbe, 0x7c, 0xe8, 0xa0, 0x3e, 0xfe, 0xb0, 0x9a, 0xbd,
  0x3d, 0xc0, 0x72, 0x3d, 0x67, 0x7a, 0x9b, 0x3d, 0x6a, 0xe5, 0xff, 0xff,
  0x04, 0x00, 0x00, 0x00, 0x60, 0x09, 0x00, 0x00, 0x79, 0x76, 0xd4, 0x3d,
  0x0d, 0x5a, 0xc7, 0x3d, 0x99, 0x09, 0x96, 0xbd, 0xfe, 0xe4, 0x4a, 0xbe,
  0x0c, 0x98, 0xba, 0xbe, 0x28, 0x0c, 0xa1, 0xbe, 0x0b, 0x93, 0x6d, 0xbb,
  0x91, 0xc0, 0x9b, 0x3d, 0x6c, 0x35, 0xc1, 0xbc, 0x32, 0xef, 0x0d, 0xbe,
  0xe8, 0x0c, 0x2f, 0xbe, 0xbb, 0x99, 0x2a, 0xbd, 0xef, 0xc6, 0xd3, 0x3c,
  0x6e, 0x55, 0xd4, 0xbc, 0xe5, 0x85, 0x35, 0x3e, 0xbf, 0x42, 0x93, 0x3d,
  0x77, 0x0e, 0x43, 0xbe, 0x1b, 0x2e, 0x02, 0xbe, 0x7e, 0x8f, 0xa9, 0x3e,
  0x44, 0x92, 0x23, 0xbe, 0x11, 0xba, 0xa6, 0x3e, 0x03, 0x92, 0x3b, 0xbe,
  0xe8, 0xdd, 0x1f, 0xbd, 0x04, 0xef, 0x12, 0x3e, 0xbb, 0x29, 0xc2, 0xbc,
  0x60, 0x72, 0xc7, 0xbd, 0x1b, 0x8f, 0x80, 0x3e, 0x66, 0x72, 0x6b, 0x3e,
  0x38, 0x54, 0x79, 0x3d, 0x5e, 0x18, 0x37, 0xbd, 0x11, 0xf9, 0xa4, 0x3d,
  0xbf, 0x4b, 0x5e, 0x3e, 0x4c, 0x58, 0x9a, 0xbe, 0xb3, 0x66, 0x5b, 0xbd,
  0xf1, 0xfe, 0x58, 0x3e, 0xd0, 0x65, 0x3d, 0x3d, 0xbd, 0xc3, 0x25, 0xbe,
  0x2b, 0x71, 0x6d, 0xbc, 0xa7, 0x87, 0xdd, 0x3d, 0x8b, 0x69, 0x79, 0x3d,
  0x8f, 0xf3, 0x22, 0x3c, 0xea, 0xd4, 0x82, 0xbd, 0x3d, 0xd5, 0x5f, 0xbe,
  0x00, 0x4f, 0xa5, 0xbd, 0x52, 0x80, 0xa1, 0xbe, 0x56, 0x6f, 0x88, 0xbe,
  0x58, 0x26, 0xa9, 0x3e, 0x81, 0x50, 0x38, 0xbd, 0xb2, 0x44, 0xd0, 0x3d,
  0x5e, 0xfa, 0x82, 0x3e, 0x77, 0xa0, 0x5e, 0x3d, 0xf7, 0x23, 0x6c, 0x3e,
  0xfd, 0x04, 0x49, 0x3d, 0x88, 0x80, 0x78, 0x3d, 0x6f, 0x27, 0x74, 0x3e,
  0x76, 0xb4, 0x1c, 0x3e, 0x73, 0xd5, 0x2b, 0x3e, 0x9f, 0x62, 0xa5, 0x3e,
  0xbb, 0x85, 0x65, 0xbe, 0x69, 0xd5, 0x41, 0x3e, 0x91, 0x8e, 0x91, 0xbd,
  0x58, 0x11, 0xb6, 0x3d, 0x8d, 0x0f, 0x99, 0x3e, 0xed, 0xf1, 0x87, 0xbe,
  0x61, 0x73, 0x88, 0x3d, 0xb7, 0xbb, 0x0b, 0xbe, 0x0a, 0xdf, 0x02, 0x3e,
  0xe2, 0x34, 0x85, 0xbe, 0x7e, 0xd7, 0x5b, 0x3e, 0xd1, 0x6f, 0x3c, 0xbe,
  0xe7, 0xd0, 0x2f, 0xbe, 0x80, 0x47, 0x1c, 0xbe, 0x85, 0xc8, 0x25, 0x3e,
  0xa7, 0xdb, 0x36, 0xbd, 0x29, 0xbe, 0x54, 0x3e, 0x04, 0xfc, 0x59, 0xbd,
  0xda, 0x20, 0x1e, 0x3e, 0x3a, 0xaa, 0xeb, 0x3d, 0x04, 0x10, 0x64, 0xbe,
  0x24, 0xcf, 0xd6, 0x3d, 0xf1, 0x34, 0x3b, 0xbd, 0x30, 0x83, 0xa6, 0xbe,
  0xd2, 0x7b, 0x66, 0xbd, 0x05, 0x01, 0x31, 0x3e, 0x46, 0xa1, 0x1e, 0xbd,
  0x6f, 0x2c, 0x49, 0x3e, 0xb5, 0xab, 0x44, 0xbe, 0x3e, 0x27, 0x10, 0x3e,
  0x89, 0x65, 0x3b, 0xbd, 0xa6, 0x12, 0x93, 0x3d, 0x23, 0x59, 0x5d, 0xbe,
  0x73, 0x7b, 0xdb, 0xbc, 0xa1, 0x00, 0xff, 0xbd, 0x11, 0xde, 0xa2, 0xbe,
  0x70, 0x63, 0x46, 0xbd, 0x43, 0xa3, 0x51, 0x3e, 0x9b, 0x74, 0x53, 0xbd,
  0xce, 0xf3, 0x38, 0x3c, 0xaf, 0x97, 0x21, 0xbe, 0x95, 0x09, 0x88, 0x3e,
  0x2e, 0xb9, 0x09, 0x3e, 0xd1, 0xe7, 0x53, 0x3e, 0xbf, 0x68, 0x0b, 0xbe,
  0x94, 0x46, 0x31, 0xbe, 0xeb, 0x2c, 0x17, 0xbe, 0x42, 0xe1, 0x93, 0xbd,
  0xd5, 0xd2, 0x0f, 0xbd, 0xde, 0xc3, 0xa8, 0x3e, 0x98, 0x1b, 0xb6, 0xbd,
  0xa3, 0x23, 0x41, 0x3e, 0x5f, 0x59, 0xd4, 0x3d, 0x85, 0x9f, 0x26, 0xbe,
  0x48, 0x50, 0x0b, 0xbe, 0x55, 0xcf, 0x8e, 0xbc, 0x7f, 0xb9, 0x5a, 0xbe,
  0x52, 0xf9, 0xa0, 0x3c, 0xcb, 0x40, 0x85, 0x3d, 0x90, 0x16, 0xf3, 0xbd,
  0x69, 0x61, 0x5a, 0xbe, 0x9f, 0x6b, 0x5f, 0x3e, 0xf3, 0x02, 0x3a, 0x3c,
  0xaf, 0x73, 0x3a, 0xbe, 0x1a, 0x50, 0xa3, 0xbe, 0x80, 0xac, 0xca, 0xbc,
  0x2a, 0xec, 0xb5, 0xbe, 0x66, 0x08, 0x46, 0x3e, 0xa7, 0x46, 0x38, 0xbe,
  0x77, 0x02, 0xa9, 0xbc, 0x7d, 0xfc, 0x99, 0x3d, 0x97, 0x08, 0x95, 0x3d,
  0xbe, 0xd3, 0x6a, 0xbd, 0x48, 0xaa, 0x75, 0xbb, 0x84, 0xd0, 0x82, 0x3e,
  0x5e, 0x70, 0x44, 0x3e, 0x55, 0xed, 0xba, 0xbe, 0xb2, 0x7f, 0x6b, 0x3e,
  0xf3, 0x6d, 0x10, 0x3d, 0x3a, 0x65, 0x6f, 0x3e, 0xdc, 0x80, 0x64, 0x3d,
  0x98, 0x19, 0x18, 0xbd, 0x4e, 0x17, 0x0f, 0xbe, 0xe3, 0x6f, 0x6e, 0xbd,
  0xca, 0xe1, 0xb2, 0x3e, 0x34, 0x0e, 0x22, 0x3e, 0x11, 0x05, 0x59, 0xbd,
  0xb6, 0x47, 0x7d, 0x3e, 0x0b, 0xe9, 0x3f, 0x3e, 0xb2, 0x48, 0x1e, 0x3e,
  0xdd, 0x51, 0xdc, 0xbd, 0x93, 0x3c, 0x7f, 0x3d, 0x42, 0x27, 0x8d, 0x3d,
  0x35, 0x17, 0xcc, 0xbd, 0xa8, 0xc4, 0x64, 0x3e, 0x10, 0x3a, 0x9e, 0xbe,
  0xbc, 0x8b, 0xce, 0x3e, 0x73, 0x68, 0xc2, 0x3d, 0xb7, 0x47, 0xfe, 0x3d,
  0x2e, 0x62, 0x89, 0x3e, 0x41, 0x6e, 0x69, 0x3e, 0x70, 0x03, 0xbf, 0x3d,
  0xeb, 0x98, 0xaa, 0x3e, 0x8b, 0x80, 0xb2, 0xbd, 0xf4, 0xd3, 0x03, 0x3c,
  0x86, 0x9a, 0x62, 0xbd, 0x4b, 0x22, 0x8b, 0x3c, 0xfb, 0xf4, 0xc4, 0x3d,
  0xe2, 0x7b, 0x64, 0x3d, 0xce, 0x99, 0xd4, 0xbc, 0xb3, 0xe6, 0x03, 0x3e,
  0xe1, 0x8d, 0x7a, 0x3d, 0x19, 0xf3, 0xe0, 0xbd, 0xe7, 0xf2, 0x80, 0xbd,
  0xf9, 0x7b, 0xdf, 0xba, 0xfe, 0xa1, 0x46, 0xbe, 0xa1, 0xae, 0x6b, 0x3e,
  0x21, 0x50, 0x1d, 0xbe, 0x5e, 0x00, 0x78, 0x3e, 0x3b, 0x3c, 0xd5, 0xbd,
  0x56, 0x31, 0x03, 0x3e, 0x90, 0x35, 0x8a, 0xbd, 0x7b, 0xf9, 0x8c, 0xbe,
  0x10, 0x62, 0x97, 0x3e, 0x41, 0x96, 0xfb, 0x3c, 0xb4, 0x69, 0x86, 0xbc,
  0x70, 0x56, 0xb6, 0xbd, 0xb2, 0x84, 0x9c, 0x3d, 0x75, 0xce, 0x27, 0xbe,
  0x8e, 0xfa, 0x1f, 0x3e, 0x8a, 0x93, 0x26, 0xbd, 0xef, 0x17, 0x7b, 0xbe,
  0x87, 0x8d, 0x90, 0x3e, 0x6c, 0xa4, 0x65, 0x3d, 0x34, 0x3f, 0x06, 0xbe,
  0x40, 0xd0, 0xac, 0x3e, 0x7f, 0xfd, 0x9c, 0xbc, 0x4a, 0xb1, 0xca, 0x3d,
  0x38, 0x5d, 0x04, 0x3e, 0x25, 0x36, 0x53, 0xbe, 0x29, 0x63, 0xca, 0xbe,
  0xd6, 0xbb, 0x5a, 0x3e, 0xd9, 0x7a, 0x14, 0xbe, 0x98, 0x4f, 0x5e, 0x3e,
  0x6c, 0x8b, 0x0c, 0x3e, 0x98, 0xb7, 0xac, 0x3e, 0x02, 0x47, 0xf0, 0xbd,
  0xbb, 0xe9, 0x2f, 0x3d, 0x09, 0x04, 0xdb, 0xbd, 0x4c, 0xbe, 0x78, 0xbe,
  0xd3, 0x66, 0xba, 0x3e, 0x1d, 0xf7, 0x89, 0x3d, 0x53, 0xf0, 0xa1, 0xbe,
  0x41, 0x24, 0x15, 0xbe, 0x3c, 0xcb, 0xb8, 0x3d, 0x27, 0x36, 0x44, 0x3e,
  0x05, 0x36, 0x52, 0x3d, 0xea, 0xa5, 0x81, 0x3e, 0xcf, 0x53, 0x2f, 0x3e,
  0x9f, 0xcd, 0xa1, 0xbd, 0x93, 0xe1, 0x16, 0x3d, 0x57, 0x57, 0x95, 0xb9,
  0xa1, 0xce, 0x19, 0xbe, 0x91, 0xdc, 0x7b, 0xbd, 0xa7, 0x80, 0x78, 0xbe,
  0xed, 0xf5, 0x1b, 0xbe, 0xec, 0xb8, 0xb4, 0x3c, 0x2e, 0x7a, 0x23, 0xbe,
  0x1d, 0x87, 0x1c, 0xbe, 0x1d, 0xd2, 0x24, 0x3e, 0x04, 0x9e, 0x02, 0x3e,
  0x7f, 0x65, 0xd1, 0xbd, 0xd2, 0x5d, 0x4d, 0x3d, 0xe2, 0x8f, 0xdf, 0xbd,
  0x49, 0x37, 0x07, 0x3e, 0x6e, 0xfe, 0x8d, 0xbd, 0x03, 0xf9, 0x37, 0x3e,
  0xdd, 0xd5, 0xaa, 0x3c, 0xf7, 0xc3, 0xfb, 0xbc, 0xeb, 0xd5, 0x14, 0xbc,
  0x07, 0x38, 0x5e, 0xbd, 0x55, 0xd7, 0xfc, 0x3c, 0x5f, 0x05, 0xa3, 0x3e,
  0x93, 0x68, 0x8d, 0xbe, 0xa2, 0xdc, 0x97, 0x3d, 0xaf, 0x5c, 0x8c, 0x3e,
  0x67, 0x58, 0x82, 0xbd, 0x97, 0xd8, 0x4a, 0xbe, 0x74, 0x0d, 0x85, 0x3e,
  0x3c, 0xdc, 0xbe, 0xbe, 0xa8, 0xce, 0xf1, 0x3d, 0x78, 0x20, 0x73, 0xbd,
  0xeb, 0x85, 0x4a, 0x3d, 0xd4, 0xb7, 0x70, 0xbe, 0x87, 0x62, 0x70, 0x3b,
  0x13, 0x0b, 0x31, 0xbd, 0x01, 0x7a, 0xbf, 0xbe, 0x47, 0x45, 0xda, 0x3d,
  0x4f, 0x16, 0x97, 0xbe, 0xde, 0x60, 0x8f, 0x3c, 0x5f, 0x2c, 0xb7, 0xbc,
  0xb4, 0xea, 0x00, 0xbe, 0x51, 0x35, 0x8d, 0xbd, 0x1c, 0x05, 0x94, 0x3e,
  0x7f, 0x7f, 0xe8, 0xbc, 0xd7, 0x3d, 0x40, 0x3e, 0x21, 0xd5, 0x34, 0xbe,
  0xfd, 0x4c, 0x98, 0xbe, 0xab, 0x6b, 0x1c, 0x3e, 0x09, 0xb8, 0x4b, 0xbe,
  0xa9, 0x6b, 0xbe, 0xbd, 0x0d, 0x9e, 0x91, 0xbd, 0x2c, 0x39, 0x3f, 0xbe,
  0x1d, 0x84, 0xb3, 0x3e, 0xf0, 0x79, 0x65, 0xbb, 0x30, 0x0c, 0xaa, 0xbd,
  0xf3, 0x80, 0x4e, 0xbd, 0x0d, 0xe2, 0x75, 0x3e, 0x24, 0x48, 0xd4, 0x3d,
  0xcc, 0x84, 0x8a, 0x3d, 0x94, 0x0c, 0x84, 0xbe, 0xc8, 0x4c, 0xc3, 0xbc,
  0x9a, 0x0e, 0xb5, 0x3c, 0xca, 0xdf, 0x18, 0xbe, 0x3d, 0x2f, 0x7d, 0x3d,
  0xba, 0xa7, 0x26, 0xbe, 0x88, 0xb6, 0xb2, 0xbd, 0x84, 0xb6, 0xfa, 0xbd,
  0xa8, 0x59, 0xd2, 0xbd, 0x29, 0xe5, 0x60, 0x3c, 0xb7, 0x98, 0xb3, 0x3d,
  0xc1, 0xf2, 0xb7, 0xbd, 0x35, 0x72, 0xb1, 0xbe, 0x87, 0x1a, 0x46, 0x3e,
  0xa2, 0x3f, 0x94, 0x3e, 0x04, 0x7f, 0xc4, 0x3e, 0x66, 0x45, 0x81, 0xbe,
  0xc0, 0xf8, 0x07, 0x3e, 0xe2, 0xa4, 0x45, 0xbe, 0xea, 0xd9, 0xfe, 0xbd,
  0x6b, 0x7e, 0xa0, 0x3e, 0xfb, 0x69, 0xf4, 0x3c, 0xec, 0xbd, 0x50, 0x3e,
  0x78, 0xbc, 0x3b, 0xbe, 0xb2, 0xe7, 0xb4, 0x3d, 0xfa, 0x9a, 0x95, 0x3d,
  0x1e, 0xdb, 0xcb, 0x3b, 0xfa, 0x50, 0x5d, 0x3d, 0xdd, 0x71, 0xb9, 0x3c,
  0x50, 0x8d, 0x36, 0x3e, 0x4e, 0x0a, 0x84, 0x3e, 0x8d, 0x7d, 0xe8, 0xbd,
  0xac, 0x42, 0xb3, 0x3e, 0xbd, 0x3d, 0x3a, 0x3e, 0xd9, 0x94, 0x06, 0xbc,
  0xbd, 0x29, 0x67, 0x3e, 0x89, 0x48, 0xc2, 0x3d, 0x81, 0xe7, 0x7c, 0xbe,
  0x80, 0x37, 0x4c, 0x3e, 0xc9, 0x6d, 0x18, 0xbe, 0xc0, 0x89, 0xdb, 0x3d,
  0x62, 0x64, 0xbb, 0xbe, 0x7a, 0xd7, 0x83, 0xbe, 0x11, 0xba, 0xa1, 0xbe,
  0x4f, 0x25, 0x1a, 0xbd, 0xda, 0xb9, 0x90, 0x3d, 0xf7, 0x26, 0xe4, 0xbd,
  0x08, 0xa1, 0x10, 0x3e, 0xf1, 0x3e, 0xae, 0x3d, 0x61, 0xf2, 0x89, 0x3e,
  0x01, 0xb9, 0x78, 0xbe, 0x6f, 0x6d, 0x9c, 0x3d, 0x1d, 0xd0, 0xec, 0x3d,
  0x10, 0x12, 0x83, 0xbe, 0xbb, 0x9d, 0xee, 0xbd, 0xa7, 0x39, 0x71, 0xbd,
  0xb0, 0xce, 0x1a, 0xbd, 0xa2, 0xee, 0x60, 0x3e, 0xaa, 0xd7, 0x52, 0x3e,
  0xb9, 0x69, 0x09, 0xbe, 0xbb, 0xd4, 0x15, 0xbe, 0xd7, 0xcd, 0x99, 0xbc,
  0xa6, 0xb6, 0x1a, 0xbc, 0x09, 0x27, 0xb0, 0x3d, 0x42, 0xb5, 0xa3, 0x3d,
  0xad, 0xe6, 0x86, 0x3e, 0x3f, 0xab, 0x6d, 0x3e, 0xf7, 0x12, 0x85, 0xbd,
  0x10, 0x2b, 0xdd, 0xbd, 0x74, 0xf8, 0x85, 0xbd, 0x53, 0x3f, 0x8f, 0x3e,
  0x79, 0x60, 0xef, 0x3d, 0x20, 0x53, 0x80, 0x3d, 0x7a, 0xfb, 0x44, 0xbb,
  0xfa, 0x92, 0x24, 0x3e, 0xd9, 0x4b, 0xa5, 0xbb, 0xec, 0x2b, 0x3f, 0x3d,
  0xc4, 0x2c, 0x0b, 0x3d, 0x6f, 0x14, 0x7e, 0xbd, 0xc5, 0x6d, 0x59, 0x3e,
  0xee, 0xc0, 0x49, 0x3e, 0x47, 0x91, 0xa3, 0xbd, 0x2e, 0x36, 0x25, 0x3e,
  0x3c, 0xdb, 0xa3, 0x3d, 0x92, 0xc0, 0xc1, 0x3d, 0x8c, 0x11, 0x60, 0x3e,
  0xe6, 0xce, 0xdf, 0xbd, 0xc9, 0x0a, 0xa9, 0xbe, 0x29, 0x02, 0x5d, 0x3d,
  0xbd, 0x95, 0x0b, 0x3d, 0x9c, 0x6b, 0xc8, 0x3c, 0xeb, 0xc3, 0x74, 0x3e,
  0xb6, 0x25, 0x1a, 0x3c, 0x9c, 0x17, 0x35, 0x3d, 0x52, 0xf5, 0xad, 0x3d,
  0x36, 0xb1, 0x89, 0x3e, 0xec, 0xaa, 0x3b, 0x3c, 0x87, 0x17, 0xdc, 0xbd,
  0xc2, 0xb8, 0x3b, 0xbd, 0x61, 0xac, 0x73, 0x3e, 0x13, 0x29, 0x7f, 0x3e,
  0xd8, 0x7e, 0x97, 0xbd, 0x6a, 0x2c, 0x70, 0x3d, 0xad, 0xad, 0x42, 0x3d,
  0xda, 0xc8, 0x24, 0xbe, 0xe8, 0x2a, 0xa7, 0x3d, 0x88, 0x6a, 0x52, 0x3e,
  0xbc, 0x06, 0x9c, 0xbd, 0x8b, 0xd5, 0xc6, 0xbe, 0xcd, 0xd8, 0x8b, 0x3d,
  0x62, 0xc4, 0x8d, 0xbd, 0xd0, 0x02, 0x32, 0xbd, 0xef, 0xc2, 0x6a, 0xbe,
  0x89, 0x9e, 0xb8, 0x3e, 0x8e, 0x8e, 0x8a, 0x3d, 0x10, 0x3a, 0xdf, 0xbb,
  0xdd, 0xd2, 0xb5, 0x3e, 0x3d, 0x8f, 0x6a, 0xbe, 0xda, 0x0d, 0xd2, 0xbc,
  0xc5, 0x5d, 0x42, 0xbe, 0x88, 0x7f, 0x0d, 0x3e, 0x92, 0xd6, 0x8a, 0xbd,
  0xdc, 0xad, 0xb2, 0x3d, 0xe8, 0xca, 0x1a, 0xbc, 0x7d, 0x12, 0xd1, 0x3d,
  0x5b, 0xd0, 0xa3, 0x3d, 0x22, 0x88, 0xc2, 0xbd, 0xc3, 0x40, 0x68, 0xbe,
  0x75, 0x75, 0x34, 0xbe, 0x1e, 0x56, 0xe0, 0x3d, 0x8c, 0x52, 0x29, 0xbe,
  0x03, 0x0e, 0xcc, 0xbd, 0x66, 0x8a, 0xf8, 0x3d, 0x6a, 0xa8, 0xca, 0xbc,
  0xda, 0x7d, 0x3c, 0xbe, 0x65, 0x7f, 0x86, 0x3b, 0xc3, 0x53, 0x9c, 0x3d,
  0xd0, 0x54, 0x86, 0x3d, 0xc8, 0x0f, 0x84, 0x3e, 0xcc, 0x2b, 0x34, 0x3e,
  0xba, 0x56, 0xaa, 0xbd, 0xfb, 0xcd, 0xe3, 0x3d, 0xaa, 0xf3, 0x4e, 0x3e,
  0xfc, 0x50, 0x24, 0xbd, 0xcc, 0x8f, 0x6b, 0xbe, 0x7d, 0x62, 0x4e, 0x3e,
  0xfc, 0xaf, 0xb9, 0x3b, 0x18, 0xbe, 0xc3, 0x3c, 0x8e, 0x27, 0x3d, 0xbe,
  0x05, 0xf7, 0xa5, 0x3e, 0xe1, 0xc0, 0xbc, 0x3c, 0x3a, 0xea, 0xb9, 0x3e,
  0x42, 0x6e, 0x2b, 0xbd, 0xce, 0x13, 0x31, 0xbe, 0x58, 0x9b, 0x56, 0xbc,
  0xc5, 0xf4, 0xc6, 0xbc, 0xc9, 0x03, 0x86, 0x3d, 0xad, 0x83, 0x00, 0xbe,
  0x11, 0xec, 0x1e, 0xbd, 0x7c, 0x5c, 0x86, 0x3e, 0xb2, 0x55, 0x1e, 0xbd,
  0xf2, 0x31, 0x8c, 0x3e, 0xe3, 0xd3, 0xbd, 0xbd, 0xac, 0xc1, 0xd2, 0x3d,
  0xb5, 0xa2, 0x8d, 0x3d, 0x42, 0xe4, 0x03, 0xbb, 0xca, 0xff, 0x8c, 0x3d,
  0x84, 0x87, 0x1d, 0x3e, 0x94, 0x8f, 0x32, 0xbe, 0x90, 0xc4, 0x56, 0xbd,
  0x39, 0xf2, 0x90, 0xbe, 0x89, 0xaa, 0x17, 0xbe, 0x5e, 0xee, 0x6a, 0xbd,
  0x61, 0x3c, 0xb2, 0xbe, 0xe7, 0x19, 0x21, 0xbe, 0x1b, 0xd9, 0x31, 0xbe,
  0xf2, 0x69, 0xaf, 0x3c, 0xd4, 0x2f, 0x9c, 0xbe, 0xcf, 0x43, 0x33, 0x3d,
  0x50, 0xe0, 0x96, 0xbe, 0xf4, 0xb9, 0x5b, 0xbe, 0xed, 0x34, 0x14, 0x3e,
  0x30, 0xfc, 0x34, 0xbe, 0x47, 0xbb, 0xc6, 0x3c, 0x36, 0x89, 0x8c, 0xbe,
  0x6a, 0x3d, 0xed, 0x3d, 0xeb, 0xdf, 0x86, 0xbd, 0x1f, 0xb3, 0x0c, 0xbe,
  0xc7, 0x30, 0x9f, 0xbb, 0xc4, 0x60, 0x61, 0x3c, 0x8c, 0x8b, 0xa6, 0x3e,
  0xd7, 0x6d, 0x43, 0x3d, 0x53, 0xea, 0xba, 0xbd, 0x4c, 0xba, 0xeb, 0xba,
  0x59, 0x39, 0x2a, 0xbe, 0xbf, 0x53, 0xc6, 0x3d, 0xe0, 0x20, 0x85, 0xbe,
  0xad, 0xd9, 0x53, 0x3d, 0xe6, 0x69, 0x28, 0xbd, 0x76, 0xa3, 0x28, 0x3c,
  0x0d, 0x74, 0x3b, 0xbe, 0x0c, 0x89, 0x55, 0xbe, 0x0d, 0x16, 0x9e, 0xbd,
  0x5f, 0xba, 0x50, 0x3e, 0x2c, 0x42, 0x34, 0x3d, 0xad, 0xfb, 0x10, 0xbd,
  0x07, 0x3d, 0xa5, 0x3c, 0xef, 0x77, 0x8f, 0xbd, 0x8a, 0x46, 0x19, 0xbe,
  0x2c, 0x8d, 0x9f, 0xbd, 0xc7, 0xa2, 0x49, 0xbd, 0x15, 0x72, 0xf3, 0xbd,
  0x6c, 0x73, 0x37, 0xbe, 0x8e, 0x5e, 0x49, 0x3e, 0x3f, 0x04, 0xaf, 0x3e,
  0x6c, 0xa4, 0xae, 0x3e, 0xf6, 0xf5, 0x32, 0x3e, 0x8b, 0x78, 0xc6, 0x3d,
  0x90, 0x35, 0x38, 0xbe, 0xf7, 0x95, 0x93, 0xbd, 0x4d, 0x19, 0x1c, 0x3e,
  0x86, 0xc6, 0x3a, 0x3e, 0x35, 0xf2, 0x9d, 0xbe, 0x3a, 0x6a, 0xf3, 0xbd,
  0xc0, 0x46, 0x30, 0x3d, 0xb4, 0xf4, 0xd6, 0x3c, 0x81, 0xb2, 0xa3, 0xbd,
  0xe1, 0x9e, 0x0e, 0x3c, 0xab, 0xf1, 0xb7, 0xbe, 0x10, 0x6f, 0x73, 0x3d,
  0x20, 0xc0, 0xee, 0xbd, 0x16, 0x35, 0xaf, 0x3e, 0xa1, 0x28, 0x20, 0xbe,
  0x99, 0x69, 0x90, 0xbe, 0x08, 0x4a, 0x96, 0xbe, 0x7c, 0xf8, 0xce, 0xbb,
  0xea, 0xe7, 0x8a, 0xbe, 0x72, 0x80, 0xd1, 0xbc, 0x5e, 0x50, 0xaa, 0x3d,
  0x65, 0x9b, 0xb6, 0xbd, 0x67, 0xf2, 0x10, 0x3e, 0x1e, 0x58, 0xa6, 0xbe,
  0x9f, 0xe1, 0x12, 0xbb, 0xab, 0x20, 0xaa, 0x3e, 0x54, 0x01, 0xb9, 0x3d,
  0x2e, 0x99, 0x83, 0x3e, 0xf0, 0x0e, 0x3d, 0xbe, 0x8d, 0xb4, 0xbc, 0xbb,
  0xd9, 0xd6, 0x4d, 0xbd, 0x65, 0x5b, 0x0d, 0x3d, 0x8a, 0x6a, 0xf5, 0x3d,
  0xe1, 0xc6, 0x1a, 0x3e, 0xe3, 0x37, 0xb2, 0xbe, 0xc3, 0xd0, 0x5e, 0xbe,
  0x5f, 0x20, 0x80, 0xbe, 0xc6, 0xef, 0x6a, 0xbe, 0xe0, 0xe3, 0x1c, 0x3e,
  0x98, 0x7e, 0x18, 0xbe, 0xa8, 0x5e, 0x06, 0x3e, 0xe1, 0x7d, 0x6f, 0xbd,
  0x79, 0x6d, 0x17, 0x3e, 0x72, 0x71, 0x96, 0xbe, 0xd5, 0x82, 0x3f, 0xbe,
  0x88, 0x06, 0x20, 0x3d, 0x2d, 0x2f, 0x34, 0xbd, 0x4f, 0x98, 0x9e, 0xbd,
  0x00, 0xc5, 0x4d, 0xbe, 0x75, 0xc0, 0x7f, 0xbe, 0x9c, 0x22, 0x07, 0xbc,
  0x0c, 0x44, 0x43, 0x3d, 0x13, 0xd4, 0x18, 0x3e, 0xb9, 0x03, 0x04, 0x3d,
  0x9a, 0x0d, 0x97, 0xbd, 0x22, 0xdd, 0x04, 0x3e, 0x11, 0x16, 0x32, 0x3e,
  0xf7, 0x81, 0x4d, 0x3d, 0xf4, 0xd1, 0xcb, 0xbe, 0x96, 0x0e, 0x96, 0xbe,
  0x4c, 0xdd, 0x35, 0x3e, 0x12, 0x4d, 0x79, 0xbe, 0x4e, 0x3a, 0x41, 0x3e,
  0xa1, 0xdf, 0x32, 0xbe, 0xae, 0x01, 0xca, 0xbd, 0x4b, 0x79, 0x2f, 0xbe,
  0x44, 0xfa, 0xa5, 0x3d, 0x04, 0x98, 0x8d, 0xbd, 0xfa, 0x6a, 0x96, 0x3e,
  0x6c, 0xfe, 0xe9, 0x3d, 0xf0, 0x6a, 0xdb, 0x3c, 0xcc, 0xc1, 0xdb, 0xbd,
  0xf4, 0x53, 0xb9, 0xbe, 0x1f, 0xfc, 0x72, 0x3c, 0x76, 0xd9, 0x01, 0x3d,
  0xe5, 0x31, 0x1a, 0xbe, 0x58, 0x58, 0x69, 0xbe, 0xed, 0x3a, 0xd5, 0x39,
  0x12, 0xd3, 0x5d, 0x3d, 0xc8, 0x9a, 0x90, 0xbe, 0xed, 0x0f, 0x58, 0xbe,
  0xf2, 0x3a, 0x1a, 0xbe, 0x1b, 0x2d, 0xfe, 0x3d, 0xc7, 0x85, 0x8b, 0xbd,
  0x54, 0xf6, 0xeb, 0x3d, 0x19, 0x89, 0x4b, 0x3e, 0x54, 0x07, 0x2d, 0x3e,
  0x28, 0x8c, 0x8a, 0xbe, 0xca, 0x1b, 0xba, 0xbd, 0x3a, 0xa5, 0x7f, 0x3e,
  0x13, 0x20, 0x89, 0xbe, 0x4f, 0x3a, 0x51, 0xbe, 0x15, 0xa6, 0x74, 0xbe,
  0x12, 0x27, 0x59, 0x3e, 0xd7, 0x46, 0xc1, 0x3d, 0x7a, 0xc7, 0x21, 0x3d,
  0x82, 0x3a, 0x8f, 0xbc, 0x27, 0x6e, 0xdf, 0x3d, 0xd0, 0x49, 0x0b, 0xbe,
  0xbd, 0x2b, 0x2e, 0x3c, 0x8d, 0x2d, 0x04, 0x3d, 0xe8, 0xe6, 0x98, 0x3c,
  0xd8, 0x0e, 0xc3, 0x3d, 0x82, 0xa9, 0x00, 0xbd, 0xd6, 0xee, 0xff, 0xff,
  0x04, 0x00, 0x00, 0x00, 0x80, 0x02, 0x00, 0x00, 0x69, 0x71, 0x06, 0xbe,
  0x8b, 0xd8, 0x96, 0x3e, 0x8b, 0x14, 0x8b, 0x3d, 0x39, 0xac, 0x21, 0x3e,
  0x94, 0x79, 0x84, 0x3e, 0x53, 0x12, 0xe1, 0x3d, 0x90, 0x4e, 0xa1, 0x3e,
  0x31, 0x1a, 0xe9, 0xbd, 0x49, 0xab, 0x81, 0xbe, 0x2d, 0x0e, 0x8e, 0xbd,
  0x37, 0xc0, 0xc3, 0xbe, 0x96, 0x8d, 0x52, 0x3e, 0x34, 0x16, 0x23, 0x3d,
  0x4c, 0x58, 0x8b, 0x3e, 0x8a, 0x5d, 0x7f, 0xbe, 0x52, 0x51, 0x3d, 0x3e,
  0x83, 0xca, 0x35, 0xbe, 0xc0, 0x26, 0x7a, 0xbe, 0xcc, 0x4f, 0xcc, 0xbe,
  0xa1, 0xdc, 0xd6, 0xbd, 0x89, 0xc5, 0x63, 0x3e, 0x8b, 0xdd, 0x93, 0xbe,
  0xc7, 0x44, 0x8d, 0xbe, 0x32, 0x41, 0x18, 0xbd, 0x93, 0xa0, 0x6c, 0xbd,
  0x92, 0xa9, 0x8d, 0xbe, 0xc8, 0xf1, 0xbb, 0xbd, 0x67, 0x6e, 0x45, 0x3e,
  0x6f, 0x94, 0x81, 0x3d, 0x6b, 0xe8, 0x1a, 0xbd, 0x23, 0x37, 0x4f, 0xbe,
  0x0d, 0x5c, 0x5d, 0xbe, 0x04, 0xa0, 0xdb, 0xbd, 0x9a, 0x9e, 0x33, 0xbe,
  0x2d, 0x59, 0xa0, 0x3e, 0x39, 0xb5, 0xfe, 0x3c, 0xea, 0xb7, 0x15, 0x3e,
  0x85, 0x67, 0x67, 0xbe, 0xdd, 0x29, 0x7a, 0x3c, 0x5a, 0xef, 0x62, 0x3c,
  0xfb, 0x22, 0x5e, 0xbd, 0x11, 0xe0, 0xfa, 0x3d, 0xfc, 0x8a, 0xc9, 0xbe,
  0x87, 0x72, 0x09, 0xbe, 0x4a, 0xb6, 0x05, 0x3e, 0xc5, 0x1b, 0xfa, 0xbe,
  0xe5, 0x30, 0xce, 0x3b, 0xe5, 0x0f, 0x71, 0xbe, 0xac, 0x13, 0xc1, 0x3e,
  0xa8, 0x7d, 0xc2, 0xbd, 0xfb, 0x37, 0x65, 0x3e, 0x7d, 0xd2, 0x0d, 0xbe,
  0x49, 0xf9, 0xaf, 0xbd, 0x93, 0x92, 0xf1, 0x3d, 0x94, 0x54, 0x46, 0xbe,
  0xaa, 0x3c, 0x24, 0x3e, 0x79, 0xb3, 0xa1, 0xbe, 0xd8, 0xc5, 0xa7, 0x3e,
  0x3d, 0x7f, 0x52, 0x3e, 0xcb, 0x15, 0x18, 0xbe, 0xf7, 0x34, 0x7c, 0xbe,
  0x89, 0x3a, 0x22, 0xbd, 0xa5, 0xe1, 0x62, 0x3e, 0x82, 0xb7, 0xd9, 0xbe,
  0x84, 0xc7, 0xab, 0x3c, 0x44, 0x63, 0x61, 0xbd, 0x48, 0x84, 0x73, 0x3e,
  0xd7, 0xb5, 0x86, 0x3e, 0x35, 0xb1, 0x56, 0x3d, 0x49, 0xb5, 0x9f, 0xbe,
  0x29, 0xdb, 0x76, 0x3d, 0x2a, 0xd2, 0xfb, 0x3e, 0x20, 0x52, 0x25, 0xbe,
  0x94, 0xe6, 0x01, 0x3e, 0xf4, 0x58, 0x03, 0xbf, 0x61, 0xbf, 0x83, 0x3e,
  0xd0, 0xcb, 0x7c, 0xbd, 0xb2, 0xf8, 0x05, 0x3e, 0xf2, 0xab, 0xbe, 0x3e,
  0x92, 0xf3, 0xdd, 0x3d, 0x9f, 0x1c, 0x05, 0xbf, 0x56, 0x99, 0xc0, 0xbd,
  0x0c, 0xc1, 0x92, 0x3d, 0x15, 0x6c, 0xc5, 0xbd, 0x74, 0x28, 0x84, 0x3e,
  0xc3, 0x50, 0xe8, 0xbd, 0x40, 0xc4, 0x9b, 0xbb, 0x9e, 0x5d, 0xa7, 0x3e,
  0x29, 0xb2, 0x0b, 0xbe, 0x2a, 0x4b, 0xa3, 0xbe, 0x63, 0xbe, 0x0f, 0xbe,
  0xb5, 0x85, 0xe0, 0xbc, 0x55, 0x54, 0x62, 0xbe, 0xec, 0x9b, 0xa1, 0x3d,
  0x50, 0x38, 0x6d, 0x3e, 0xb1, 0x96, 0xc0, 0x3e, 0xc5, 0x37, 0xc2, 0xbd,
  0x56, 0x47, 0x6b, 0x3d, 0xaa, 0x0f, 0x85, 0xbe, 0x4c, 0x9c, 0x05, 0xbe,
  0x73, 0x49, 0x15, 0xbe, 0x0f, 0xdb, 0xb9, 0xbe, 0xb0, 0x69, 0x93, 0x3d,
  0xa4, 0xeb, 0x6b, 0xbe, 0x04, 0xd0, 0x36, 0xbc, 0x42, 0xc5, 0x2d, 0x3d,
  0x0f, 0xd9, 0x94, 0x3e, 0x04, 0x05, 0x1c, 0x3e, 0xfc, 0x88, 0x3c, 0x3e,
  0x41, 0x1b, 0xca, 0xbe, 0x3f, 0x4a, 0x7f, 0x3e, 0x25, 0x19, 0xf1, 0xbc,
  0xe6, 0x95, 0x67, 0xbe, 0x8a, 0x02, 0x2a, 0xbd, 0xef, 0x50, 0xe6, 0xbc,
  0x14, 0xde, 0xa8, 0xbe, 0x7d, 0xe5, 0xec, 0xbd, 0x86, 0x8a, 0x2e, 0x3e,
  0x19, 0x30, 0x3c, 0xbe, 0x83, 0xb7, 0xd0, 0xbe, 0x03, 0xee, 0x81, 0x3e,
  0x45, 0xdb, 0x0c, 0xbe, 0xff, 0x12, 0x51, 0xbd, 0x48, 0x23, 0x8b, 0x3e,
  0xa4, 0xb0, 0x29, 0x3e, 0x67, 0x1d, 0x21, 0x3e, 0xce, 0xf6, 0x56, 0x3e,
  0x32, 0xe1, 0x42, 0x3e, 0x9f, 0x3e, 0x38, 0x3e, 0x2e, 0xb5, 0xf8, 0xbe,
  0xf7, 0x0b, 0xb5, 0xbd, 0xd6, 0x06, 0xb4, 0xbe, 0x89, 0x53, 0x14, 0xbe,
  0x79, 0x99, 0x0d, 0x3e, 0x26, 0xa1, 0x95, 0xbc, 0x07, 0x41, 0xff, 0xbe,
  0x4a, 0x4c, 0xec, 0x3e, 0xf6, 0xe2, 0xaf, 0x3c, 0x91, 0x33, 0x98, 0x3d,
  0xba, 0x87, 0x6d, 0x3e, 0x7c, 0x09, 0x3e, 0x3d, 0x0e, 0x1c, 0x8b, 0xbe,
  0x01, 0x9d, 0x2f, 0x3e, 0x82, 0xd3, 0x62, 0xbd, 0x06, 0x84, 0xc9, 0x3d,
  0x07, 0x2e, 0x69, 0x3c, 0x66, 0x20, 0x6a, 0xbe, 0x6f, 0x4b, 0x81, 0xbd,
  0xd5, 0x0a, 0x7c, 0x3e, 0x96, 0x0f, 0xf4, 0xbc, 0x7e, 0xa9, 0x57, 0x3e,
  0x80, 0x46, 0x47, 0xbe, 0x30, 0x7f, 0x21, 0x3e, 0x27, 0x78, 0x09, 0x3e,
  0x4e, 0xd3, 0x25, 0xbe, 0x92, 0x87, 0xb6, 0xbe, 0x6c, 0x61, 0x3c, 0x3c,
  0x1c, 0x54, 0x89, 0x3e, 0xde, 0x3c, 0xcb, 0xbe, 0x03, 0x2a, 0xc2, 0xbd,
  0x62, 0xf1, 0xff, 0xff, 0x04, 0x00, 0x00, 0x00, 0x80, 0x0d, 0x00, 0x00,
  0x9b, 0x97, 0xc1, 0xbb, 0xaf, 0xd9, 0x23, 0x3e, 0x31, 0xe6, 0x03, 0x3e,
  0xa0, 0x23, 0xcd, 0xbc, 0xfa, 0x5c, 0x17, 0xbd, 0x4d, 0x9a, 0x60, 0xbb,
  0x74, 0xd5, 0x0a, 0xbe, 0x24, 0x69, 0x40, 0xbe, 0x66, 0x48, 0xe0, 0x3a,
  0xeb, 0xe7, 0xa0, 0xbd, 0xd0, 0x2e, 0x51, 0x3d, 0xfb, 0x82, 0xc5, 0x3d,
  0x9c, 0x4b, 0x5a, 0xbc, 0x8b, 0x2e, 0x8d, 0xbb, 0x34, 0x4f, 0x4b, 0x3d,
  0x39, 0x14, 0xa3, 0xbd, 0x3f, 0x6b, 0x47, 0x3e, 0x2a, 0xe5, 0x4d, 0xbe,
  0x4d, 0x90, 0x3c, 0xbd, 0xe1, 0xc3, 0x74, 0xbd, 0xbe, 0x1b, 0x16, 0x3d,
  0xdf, 0xd5, 0x06, 0xbe, 0x9f, 0xcf, 0x89, 0xbd, 0x02, 0x29, 0x92, 0x3d,
  0x76, 0x3c, 0x94, 0x3d, 0xa1, 0x16, 0x91, 0xbb, 0xe0, 0x48, 0x23, 0x3c,
  0x06, 0x13, 0xb3, 0x3d, 0x10, 0x5f, 0x65, 0xbe, 0xda, 0xe6, 0x60, 0xbc,
  0x5d, 0xc5, 0x0b, 0x3e, 0xb3, 0x8e, 0x78, 0x3e, 0xd4, 0x36, 0xb3, 0xbd,
  0x97, 0x0c, 0xb1, 0xbc, 0x51, 0xf4, 0xaf, 0x3d, 0x56, 0x7c, 0x5d, 0x3d,
  0xb6, 0x8c, 0xab, 0xbd, 0x4c, 0xd4, 0xe1, 0xbd, 0x22, 0x56, 0x95, 0x3d,
  0xa7, 0x98, 0x18, 0x3d, 0x29, 0xe8, 0x57, 0x3d, 0xe4, 0x7b, 0xbf, 0x3d,
  0xe4, 0x60, 0x30, 0xbd, 0xaf, 0x6d, 0xd6, 0x3c, 0x6f, 0xdc, 0x72, 0xbd,
  0x4e, 0xd3, 0x1c, 0x3e, 0x0d, 0xbe, 0x7d, 0xbc, 0x94, 0xa4, 0x52, 0xbd,
  0xca, 0x29, 0x29, 0x3e, 0xe4, 0xb5, 0x51, 0x3d, 0xe6, 0x3e, 0x8c, 0x3d,
  0x59, 0xe9, 0xdf, 0xbd, 0xbf, 0x7f, 0x56, 0xbb, 0xdf, 0x43, 0x8d, 0xbc,
  0x44, 0x29, 0xf8, 0x3d, 0x53, 0x58, 0xcf, 0x3d, 0x24, 0xfd, 0xf1, 0xbc,
  0x25, 0x1a, 0x8d, 0xbd, 0x22, 0xca, 0x80, 0xbc, 0x5a, 0x34, 0xca, 0x3d,
  0x59, 0xad, 0x58, 0x3d, 0x87, 0x89, 0x25, 0xbc, 0x2d, 0xa3, 0x59, 0xbe,
  0x01, 0x7c, 0xbf, 0xbd, 0x46, 0x3e, 0x54, 0x3c, 0x1e, 0xd3, 0x40, 0xbe,
  0x68, 0xa9, 0xc3, 0x3c, 0xcc, 0xfb, 0x48, 0x3e, 0x2e, 0xd9, 0xf8, 0xbc,
  0x10, 0xb8, 0x58, 0xbc, 0x78, 0xc0, 0x3b, 0x3d, 0xba, 0x98, 0xd0, 0x3d,
  0xc1, 0x31, 0x48, 0xbe, 0x98, 0xbb, 0x5a, 0xbd, 0xcb, 0x5b, 0x29, 0x3e,
  0x4b, 0xa1, 0xea, 0xbd, 0xfe, 0x66, 0x09, 0x3e, 0x3c, 0xe6, 0x19, 0x3a,
  0x7e, 0xea, 0x78, 0xbe, 0x1a, 0x87, 0x49, 0xbe, 0xb8, 0xac, 0x77, 0xbd,
  0x28, 0x70, 0x3d, 0x3e, 0xed, 0x6e, 0x39, 0x3e, 0xcf, 0x8e, 0x87, 0x3d,
  0x98, 0x77, 0xdf, 0x3c, 0x6b, 0x44, 0xb8, 0x3d, 0xe8, 0xa3, 0x71, 0xbd,
  0x69, 0x1f, 0x3c, 0x3d, 0x5d, 0xe5, 0x60, 0x3d, 0x2f, 0xbf, 0x2d, 0xbe,
  0x47, 0xc2, 0x7c, 0xbd, 0xce, 0x3a, 0x78, 0x3c, 0x80, 0xbb, 0x9c, 0x3d,
  0x8c, 0x14, 0x8e, 0xbd, 0x52, 0xd0, 0xec, 0x3d, 0xa0, 0x15, 0xb9, 0xbd,
  0xd3, 0x3d, 0x1d, 0xbe, 0xf8, 0x58, 0x0b, 0x3c, 0xa2, 0xdb, 0x7c, 0xbd,
  0x4d, 0xa0, 0x12, 0xbe, 0x53, 0x94, 0x1d, 0xba, 0xbe, 0x1c, 0x14, 0x3e,
  0x31, 0xe6, 0x87, 0x3d, 0xed, 0x0a, 0x5b, 0x3d, 0x76, 0x3a, 0xc0, 0x3d,
  0xce, 0x4b, 0x9d, 0xbd, 0x4a, 0x80, 0xc4, 0x3d, 0xa5, 0x42, 0xfa, 0xbd,
  0x60, 0x64, 0xaf, 0x3d, 0x1c, 0x93, 0x58, 0x3c, 0xd6, 0xb8, 0x5c, 0x3e,
  0xed, 0xbe, 0xad, 0xbd, 0x32, 0x6a, 0x60, 0xbc, 0x94, 0x88, 0xc0, 0xbd,
  0x48, 0x20, 0xd3, 0x3d, 0x55, 0xe4, 0x75, 0xbe, 0x80, 0xad, 0x16, 0xbe,
  0x70, 0x43, 0x21, 0xbd, 0x90, 0x17, 0xed, 0x3d, 0xcc, 0xd7, 0x0b, 0x3e,
  0xee, 0x32, 0xaf, 0x3d, 0xd0, 0x78, 0x87, 0x3d, 0x89, 0x18, 0xf2, 0xbd,
  0x40, 0x16, 0x68, 0x3e, 0x39, 0x16, 0xd4, 0x3c, 0x28, 0xc7, 0xf8, 0x3c,
  0x2e, 0xa9, 0xb1, 0xbd, 0x4b, 0xb4, 0x0f, 0x3e, 0x0c, 0x82, 0x73, 0x3d,
  0xef, 0x90, 0xc6, 0x3c, 0xb7, 0xca, 0x08, 0xbe, 0xdc, 0x20, 0x22, 0xbd,
  0x81, 0xc6, 0x58, 0x3e, 0x12, 0x47, 0x44, 0xbe, 0xd3, 0xfc, 0x1a, 0xbe,
  0xe2, 0xa3, 0x6b, 0x3e, 0x25, 0x1c, 0x80, 0x3d, 0xdb, 0xef, 0x74, 0x3c,
  0x6e, 0x04, 0x2b, 0x3e, 0x74, 0xb0, 0x0b, 0x3e, 0xd3, 0x23, 0xb5, 0x3d,
  0xab, 0xd7, 0xbd, 0xbd, 0xb9, 0x84, 0xef, 0x3d, 0x7f, 0xcb, 0x41, 0x3e,
  0xbf, 0xd5, 0x56, 0x3e, 0x3b, 0xb0, 0x22, 0xbe, 0xa4, 0x90, 0x80, 0xbc,
  0x35, 0x39, 0x12, 0xbe, 0x49, 0xc0, 0xfe, 0xbd, 0x91, 0x7e, 0x23, 0xbd,
  0x36, 0xe4, 0x5a, 0xbb, 0x39, 0xd5, 0x27, 0xbd, 0x8d, 0x0e, 0x75, 0xbd,
  0xa7, 0x21, 0x00, 0x3d, 0x51, 0xd0, 0x5e, 0xbd, 0xef, 0x3b, 0xc1, 0xbd,
  0x35, 0x28, 0xfd, 0xbd, 0x8f, 0xda, 0x05, 0x3e, 0x9b, 0x33, 0xf5, 0x3b,
  0x8b, 0x22, 0x42, 0xba, 0x11, 0x62, 0x48, 0xbd, 0x50, 0x69, 0x60, 0xbe,
  0x83, 0x17, 0x9b, 0xbd, 0x98, 0x03, 0x74, 0xbd, 0xe1, 0x0d, 0x85, 0xbd,
  0x75, 0x59, 0x42, 0xbc, 0xf6, 0xe0, 0xdc, 0x3d, 0x3b, 0x38, 0x30, 0x3e,
  0x7b, 0xd1, 0xa6, 0xbd, 0x68, 0x3e, 0x4f, 0x3e, 0x63, 0x2e, 0xc6, 0xbc,
  0x72, 0xb1, 0xdd, 0xbd, 0xc6, 0x45, 0xbc, 0xbd, 0x8e, 0x74, 0x52, 0xbd,
  0x31, 0x56, 0x27, 0x3d, 0xe9, 0x03, 0x1e, 0xbe, 0x8e, 0x7a, 0xe2, 0x3d,
  0x73, 0x42, 0x6f, 0xbd, 0x09, 0x64, 0x1f, 0x3e, 0xb6, 0x41, 0xfd, 0xbb,
  0x35, 0xba, 0xa3, 0x3c, 0xcc, 0x2b, 0x1f, 0x3e, 0xcf, 0x41, 0xf2, 0x3d,
  0xc5, 0x2b, 0x6d, 0xbe, 0x7c, 0x20, 0x14, 0xbe, 0x60, 0x78, 0x5f, 0x3d,
  0x9e, 0xb6, 0x12, 0xbe, 0x69, 0x54, 0x22, 0x3e, 0x30, 0xc0, 0xb9, 0xbc,
  0x1c, 0xda, 0x14, 0x3d, 0xf3, 0x1e, 0xc2, 0xbc, 0xa3, 0x42, 0x8c, 0x3e,
  0x2f, 0xa1, 0xbe, 0x3c, 0x5d, 0x9d, 0x17, 0xbc, 0xe5, 0x27, 0xbe, 0x3c,
  0x31, 0xdd, 0x58, 0xbe, 0x9e, 0x5f, 0xbc, 0x3c, 0xa9, 0x18, 0xda, 0xbd,
  0x11, 0xbb, 0xf3, 0xbb, 0xd7, 0x7b, 0xd1, 0x3a, 0x6e, 0x7d, 0x96, 0x3d,
  0x77, 0xd3, 0x12, 0x3d, 0xe8, 0xbc, 0x2c, 0xbe, 0x7f, 0x8d, 0x14, 0x3d,
  0x27, 0x32, 0xdb, 0x3c, 0x5e, 0x20, 0xad, 0xba, 0xa8, 0xbc, 0x15, 0x3e,
  0xbf, 0xb6, 0x4b, 0x3e, 0xd9, 0x3d, 0x07, 0x3b, 0xbe, 0x75, 0x48, 0x3d,
  0xf2, 0x73, 0x40, 0xbd, 0x7c, 0x96, 0xd4, 0xbc, 0xda, 0x97, 0x7c, 0x3e,
  0xec, 0x98, 0x8b, 0x3d, 0xf9, 0xf5, 0x70, 0xbd, 0x1e, 0xed, 0xe5, 0xbd,
  0x1d, 0x0d, 0xa6, 0xbd, 0x0e, 0xec, 0xd2, 0xbc, 0xa0, 0x61, 0x3c, 0x3c,
  0x99, 0x96, 0x01, 0xbe, 0x4b, 0x71, 0x28, 0x3e, 0xab, 0x87, 0x6c, 0x3e,
  0x5a, 0x0b, 0x6c, 0x3e, 0xf1, 0x44, 0x48, 0x39, 0x41, 0x03, 0x75, 0x3d,
  0x69, 0x44, 0x8c, 0xbb, 0xec, 0x60, 0xfe, 0xbc, 0xa7, 0x8a, 0xb8, 0xbd,
  0xc5, 0x86, 0x63, 0x3c, 0x9d, 0x00, 0x41, 0x3d, 0x4a, 0xf1, 0x72, 0x3d,
  0x34, 0x1d, 0xe3, 0x3d, 0x34, 0x4b, 0x59, 0xbe, 0x09, 0x69, 0x41, 0x3e,
  0xa2, 0xe8, 0x17, 0xbb, 0xfd, 0xe5, 0xc5, 0x3b, 0x6a, 0x24, 0xb8, 0xbd,
  0xd2, 0x5d, 0x19, 0xbc, 0xbd, 0xec, 0x9b, 0xbd, 0x6d, 0xdc, 0x07, 0xbe,
  0x8d, 0x32, 0xce, 0xbd, 0x08, 0x55, 0x44, 0x3e, 0x6c, 0x31, 0x05, 0xbe,
  0x42, 0x5d, 0x32, 0x3d, 0xa2, 0x46, 0x63, 0x3e, 0xf2, 0xc9, 0x3c, 0xbe,
  0x18, 0xf4, 0xbc, 0x3a, 0xc7, 0x49, 0x44, 0x3e, 0x23, 0xb2, 0x91, 0xbe,
  0x53, 0x70, 0x28, 0xbd, 0xc2, 0xeb, 0x52, 0xbe, 0x66, 0x2c, 0x6a, 0x3e,
  0xf1, 0x42, 0x1c, 0xbe, 0x12, 0x2f, 0x2d, 0x3e, 0x56, 0x95, 0xee, 0x3d,
  0xff, 0x8f, 0xc9, 0xbd, 0xc2, 0xdc, 0xf7, 0x3c, 0x00, 0x52, 0xa1, 0xbd,
  0xa4, 0xb3, 0xd8, 0xbd, 0x8c, 0x7a, 0x86, 0x3e, 0x4b, 0xfe, 0xcd, 0xbd,
  0x0f, 0xb6, 0x01, 0xbd, 0x73, 0xeb, 0x4d, 0x3d, 0x94, 0x4d, 0x1d, 0x3d,
  0x34, 0xad, 0x1d, 0x3e, 0x20, 0xf3, 0x4f, 0x3e, 0x90, 0x76, 0x1f, 0xbb,
  0x82, 0x57, 0xc9, 0xbd, 0x9e, 0x50, 0x09, 0x3c, 0x2e, 0xd5, 0x0e, 0xbd,
  0x6e, 0x97, 0x19, 0xbd, 0xce, 0x47, 0x18, 0x3e, 0x15, 0x32, 0x4d, 0x3e,
  0x35, 0x0a, 0x28, 0x3e, 0xa9, 0x59, 0x9a, 0x3d, 0xb8, 0xd0, 0xbf, 0x3c,
  0xcb, 0x47, 0x78, 0xbe, 0x9d, 0xbc, 0x0f, 0x3e, 0x53, 0x02, 0x20, 0xbd,
  0x70, 0x52, 0x5d, 0x3c, 0x7e, 0x07, 0x24, 0xbc, 0x24, 0xc0, 0xd6, 0x3c,
  0x4b, 0xc2, 0xf4, 0x3d, 0x87, 0xaf, 0x92, 0xbc, 0xc1, 0x11, 0x0c, 0xbe,
  0x28, 0xec, 0xb0, 0x3d, 0xff, 0x8f, 0x3a, 0xbd, 0x93, 0xd8, 0x69, 0x3d,
  0xf3, 0xeb, 0xa0, 0xbc, 0x29, 0x61, 0x2b, 0x3e, 0x3c, 0x61, 0x20, 0xbe,
  0xb4, 0x36, 0xec, 0xbd, 0xfa, 0xb2, 0x15, 0x3e, 0x0c, 0xf5, 0xf2, 0xbd,
  0x4e, 0x8f, 0x7a, 0x3c, 0x72, 0x1d, 0x40, 0x3e, 0x15, 0x2b, 0x96, 0xbd,
  0x07, 0x6a, 0xcf, 0xbd, 0x55, 0x99, 0x28, 0x3b, 0x49, 0x97, 0xb5, 0xbd,
  0xba, 0x0c, 0xb7, 0xbd, 0x8a, 0x26, 0xe4, 0x3d, 0xb1, 0x76, 0x2b, 0x3d,
  0x43, 0x4d, 0xf3, 0x3c, 0xe9, 0xc5, 0x92, 0x3d, 0xc5, 0x0a, 0xdd, 0xbd,
  0xe8, 0x94, 0xd2, 0xbd, 0xd6, 0x32, 0x69, 0xbd, 0x33, 0x43, 0x12, 0xbe,
  0xb3, 0xaf, 0x03, 0xbe, 0xd0, 0x55, 0xff, 0xbd, 0x3b, 0x8e, 0x95, 0x3d,
  0x9c, 0x85, 0xe6, 0xbd, 0xe1, 0x1a, 0x64, 0x3e, 0x9a, 0x69, 0x5b, 0xbd,
  0x2e, 0x1a, 0xff, 0x3b, 0x44, 0x63, 0x27, 0x3d, 0x2e, 0x6d, 0x08, 0xbe,
  0xc5, 0x3a, 0xff, 0xbc, 0xc2, 0x83, 0x8b, 0xbd, 0x10, 0x16, 0x3d, 0xbd,
  0x1d, 0xb4, 0x22, 0xbe, 0xe9, 0x92, 0x28, 0x3d, 0xa9, 0xc7, 0x07, 0x3e,
  0x97, 0xe2, 0xe1, 0xbc, 0x2b, 0x2b, 0x29, 0x3e, 0xe7, 0x65, 0x6a, 0x3e,
  0x95, 0xa9, 0xe4, 0x3d, 0xbf, 0xd3, 0x8c, 0xbb, 0x2a, 0xfe, 0x89, 0xbd,
  0x5f, 0x68, 0x15, 0xbe, 0xc6, 0x17, 0xa2, 0x3d, 0x23, 0x7c, 0x02, 0xbe,
  0xc5, 0x0d, 0x2e, 0x3e, 0x89, 0xb8, 0x8b, 0x3c, 0xba, 0xf0, 0x0c, 0xbe,
  0x8c, 0x75, 0x80, 0xbe, 0x64, 0x1d, 0xbd, 0x3c, 0x9d, 0xeb, 0xf6, 0xbd,
  0xa0, 0x53, 0x99, 0xbd, 0xb0, 0x24, 0xf4, 0x3d, 0xa3, 0x5d, 0x03, 0xbe,
  0xd1, 0x55, 0x1f, 0x3e, 0xa1, 0x16, 0x4b, 0x3e, 0x62, 0xac, 0xb8, 0x3c,
  0x63, 0xd0, 0x98, 0xbd, 0x89, 0x03, 0x23, 0x3e, 0xd9, 0xc8, 0x28, 0x3d,
  0x72, 0xc0, 0xa0, 0xbd, 0x8a, 0xdd, 0x4d, 0x3b, 0xd0, 0xac, 0x20, 0x3e,
  0xdb, 0x13, 0x3d, 0xbd, 0x2d, 0x40, 0x4b, 0x3e, 0xd3, 0x6e, 0x57, 0xbd,
  0xd9, 0xd2, 0x2d, 0xbe, 0x6f, 0x77, 0xf8, 0x3d, 0x53, 0x65, 0x84, 0xbe,
  0x17, 0x82, 0xae, 0x3d, 0x07, 0x39, 0x07, 0xbd, 0x06, 0x10, 0x11, 0xbd,
  0xa0, 0x91, 0x83, 0xbd, 0x7a, 0x70, 0xd7, 0x3d, 0x2d, 0x88, 0xe8, 0x3d,
  0x87, 0x7e, 0x92, 0x3d, 0xa6, 0xb8, 0x9a, 0xbc, 0x32, 0xbe, 0x18, 0x3e,
  0x9d, 0xfe, 0x39, 0xbd, 0x89, 0x7f, 0x36, 0x3e, 0x1d, 0xa5, 0x30, 0x3e,
  0x90, 0xb5, 0x19, 0x3e, 0xa0, 0x18, 0xd0, 0x3d, 0x6b, 0x37, 0x77, 0xbd,
  0x2c, 0xf2, 0x93, 0x3d, 0x15, 0x5f, 0xd6, 0xbd, 0xcc, 0x7e, 0x1b, 0xbd,
  0xa6, 0x1e, 0x82, 0xbb, 0xbf, 0xaa, 0xb6, 0x3d, 0x2f, 0x7c, 0xb0, 0xbd,
  0x73, 0xbc, 0x13, 0x3d, 0xeb, 0x10, 0x53, 0x3e, 0xa1, 0x10, 0xbe, 0x3c,
  0x03, 0x6c, 0x16, 0xbe, 0xa5, 0xea, 0xee, 0xbd, 0xc7, 0xe1, 0x36, 0x3c,
  0x9f, 0x7d, 0x83, 0x3d, 0xc2, 0x53, 0x23, 0xbe, 0x69, 0x30, 0x7d, 0x3e,
  0x6f, 0x0f, 0x21, 0x3d, 0x3d, 0x1c, 0x75, 0x3e, 0xfb, 0x25, 0x22, 0x3e,
  0xe3, 0x47, 0x08, 0xbe, 0xf3, 0x86, 0x2d, 0x3e, 0x9c, 0x72, 0x59, 0xbe,
  0x2c, 0x75, 0x2f, 0x3e, 0xc4, 0xfb, 0x35, 0x3d, 0xc0, 0x26, 0xed, 0xbc,
  0x3a, 0xb8, 0x10, 0xbd, 0xc8, 0x2c, 0x51, 0x3d, 0x30, 0x82, 0x2c, 0xba,
  0x38, 0x6a, 0x57, 0xbd, 0xcf, 0x86, 0xdb, 0xbc, 0x7f, 0x7e, 0x4d, 0x3e,
  0x05, 0x0c, 0x34, 0xbd, 0x82, 0xbf, 0xda, 0xbd, 0xae, 0x86, 0x3e, 0x3d,
  0xde, 0x41, 0x36, 0xbd, 0xf3, 0x7d, 0x09, 0xbc, 0x97, 0x96, 0x0d, 0x3e,
  0x25, 0xa5, 0x81, 0x3d, 0x81, 0xdf, 0x04, 0xbe, 0x58, 0xda, 0xb8, 0xbd,
  0xaf, 0xad, 0xc9, 0xbd, 0x5e, 0x19, 0xc6, 0xbd, 0xc9, 0x4a, 0x7d, 0xbe,
  0x2d, 0xc5, 0x73, 0x3d, 0xe5, 0x51, 0x68, 0xbe, 0x4e, 0x18, 0x85, 0xbe,
  0x0b, 0xb3, 0x02, 0xbe, 0x48, 0x4a, 0x6e, 0x3e, 0x29, 0xef, 0x6b, 0x3d,
  0xaa, 0xea, 0xa6, 0xbd, 0x5a, 0xfc, 0xfe, 0x3d, 0x27, 0x57, 0x22, 0x3d,
  0x1c, 0x4e, 0x28, 0xbe, 0xc0, 0x6e, 0x51, 0x3e, 0x83, 0x30, 0xab, 0xbc,
  0x82, 0xbc, 0x3d, 0x3e, 0x52, 0xd3, 0x0f, 0xbe, 0x02, 0x2a, 0x5f, 0x3e,
  0x87, 0x54, 0xf7, 0x3d, 0xf9, 0xaf, 0xf7, 0x3d, 0xa0, 0xf4, 0xac, 0x3a,
  0xe1, 0xc0, 0x47, 0xbd, 0xf6, 0x74, 0x43, 0xbd, 0xb3, 0x57, 0x0b, 0x3e,
  0xbe, 0xb3, 0x27, 0x3e, 0xfd, 0xde, 0x6b, 0x3e, 0xac, 0x63, 0x42, 0x3e,
  0x75, 0xc8, 0xd9, 0x3c, 0x28, 0x54, 0x43, 0x3d, 0x4f, 0xbd, 0x42, 0xbd,
  0x5e, 0xa6, 0xe5, 0xbd, 0xf9, 0x9d, 0x59, 0xbd, 0x05, 0x4a, 0xb0, 0xbd,
  0x08, 0x63, 0x48, 0xbe, 0x7b, 0x96, 0x39, 0x3e, 0x9c, 0xa3, 0x4c, 0xbe,
  0x96, 0xb8, 0x37, 0xbd, 0x91, 0x54, 0xcc, 0x3c, 0x08, 0x97, 0xa5, 0xbc,
  0x0b, 0x6d, 0xdb, 0x3d, 0xfd, 0x3c, 0x0b, 0x3e, 0x23, 0xf2, 0x72, 0x3d,
  0x10, 0x4e, 0x5e, 0xbd, 0x86, 0xf2, 0x42, 0x3d, 0x2d, 0xd0, 0xa3, 0xbd,
  0x9a, 0xb3, 0x5a, 0xbd, 0xa2, 0xcc, 0x61, 0x3e, 0xd9, 0x35, 0x16, 0x3e,
  0x2d, 0x8a, 0x17, 0x3d, 0x96, 0x55, 0xd4, 0xbd, 0x4d, 0xcc, 0x40, 0x3e,
  0x1e, 0x0d, 0x51, 0x3e, 0xaf, 0x43, 0x3d, 0xbc, 0x35, 0x61, 0x31, 0x3e,
  0x96, 0x98, 0x4f, 0x3e, 0x5f, 0x42, 0x77, 0x3d, 0x4e, 0x76, 0x1a, 0xbe,
  0xdc, 0xb8, 0x1c, 0xbe, 0xce, 0x9f, 0x00, 0xbe, 0x7d, 0x3d, 0x56, 0x3b,
  0xc2, 0x6d, 0xf3, 0x3c, 0x1e, 0x00, 0x8d, 0x3d, 0xcd, 0x69, 0xab, 0x3b,
  0x2c, 0xfe, 0x9f, 0x3d, 0xf9, 0xdb, 0x02, 0xbe, 0xd9, 0x08, 0x25, 0x3e,
  0x48, 0x73, 0x09, 0xbe, 0xb6, 0x7e, 0x47, 0xbe, 0x67, 0x45, 0x50, 0x3d,
  0x85, 0xcd, 0xc3, 0x3d, 0x57, 0x2e, 0x05, 0xbd, 0xed, 0x05, 0x02, 0xbd,
  0x6c, 0x32, 0x03, 0x3e, 0xc7, 0xb7, 0xd5, 0x3c, 0x42, 0x6b, 0xb8, 0x3d,
  0x96, 0xf4, 0x12, 0xbd, 0xc3, 0x0a, 0x39, 0xbe, 0x83, 0x9d, 0xf6, 0x3d,
  0xb5, 0xe1, 0x64, 0xbd, 0x1e, 0x1d, 0x35, 0x3b, 0x87, 0x80, 0x1c, 0x3e,
  0x4d, 0x96, 0x08, 0x3e, 0xf7, 0xe9, 0x3d, 0xbd, 0x80, 0x7f, 0x95, 0xbc,
  0x74, 0xa7, 0xf4, 0xbd, 0xd9, 0x09, 0xee, 0xbc, 0x51, 0x2c, 0xdf, 0x3d,
  0xc1, 0x61, 0xca, 0xbd, 0x47, 0x31, 0xe2, 0xbd, 0x7b, 0x7e, 0xda, 0xbc,
  0xa6, 0x7c, 0x5c, 0xbd, 0x9b, 0xbe, 0x21, 0x3e, 0x7b, 0x5f, 0x72, 0xbd,
  0x07, 0x46, 0xdf, 0xbc, 0x5c, 0x18, 0x1a, 0x3e, 0xaa, 0x4b, 0x95, 0x3d,
  0x04, 0xa9, 0x8a, 0x3c, 0xab, 0x2d, 0xf7, 0x3d, 0x10, 0xb6, 0x64, 0x3e,
  0x48, 0x00, 0xd5, 0xbd, 0x77, 0xcb, 0x0e, 0x3d, 0x25, 0x16, 0xc7, 0xbd,
  0xa8, 0xc2, 0xe0, 0xbd, 0xa7, 0x5c, 0xe5, 0x3c, 0x60, 0x59, 0x69, 0x3e,
  0x26, 0xe3, 0xe3, 0xbd, 0x66, 0x9b, 0xb7, 0x3c, 0xd3, 0xf4, 0x7c, 0x3b,
  0xa0, 0x5e, 0xae, 0xbd, 0x5f, 0x0e, 0x01, 0x3e, 0x1b, 0x0c, 0xc6, 0xbd,
  0xfd, 0xaa, 0x26, 0x3e, 0xc4, 0xfb, 0x9a, 0xbd, 0xb8, 0x56, 0xb8, 0x3c,
  0x48, 0xed, 0xc2, 0xbd, 0xe2, 0x91, 0x6d, 0xbe, 0xdf, 0xa9, 0x70, 0x3c,
  0xfe, 0x08, 0xad, 0x3d, 0x9c, 0x5a, 0x05, 0xbd, 0x6d, 0xed, 0xfc, 0x3d,
  0xc3, 0x4e, 0xae, 0xbd, 0xab, 0x17, 0x9b, 0xbd, 0x0b, 0xae, 0x62, 0x3d,
  0xa6, 0xb7, 0xc3, 0x3d, 0x45, 0x23, 0xc9, 0xbd, 0x49, 0x12, 0x04, 0x3e,
  0xfa, 0x29, 0x8b, 0xbd, 0x9e, 0xe8, 0x42, 0xbe, 0xe9, 0x0f, 0x58, 0xbc,
  0x6c, 0x7f, 0x17, 0x3e, 0x9b, 0x16, 0x82, 0x3c, 0x8c, 0xa1, 0x30, 0xbe,
  0x9f, 0x90, 0xdd, 0xbd, 0x3d, 0x9a, 0xaf, 0xbc, 0xbd, 0xce, 0x9b, 0xbd,
  0xfe, 0xdf, 0xda, 0x3d, 0x47, 0x0c, 0x8e, 0x3c, 0x7e, 0x88, 0x17, 0xbe,
  0x2a, 0x46, 0x3f, 0xbe, 0x4b, 0x86, 0xf8, 0xbc, 0x06, 0x7c, 0x0d, 0xbe,
  0x57, 0x4f, 0x3f, 0xbd, 0x7b, 0xe4, 0x88, 0xbd, 0xcd, 0xef, 0x8f, 0xbd,
  0xa0, 0xce, 0xf8, 0x3d, 0xec, 0x21, 0xe7, 0x3d, 0x53, 0x81, 0xa0, 0xbb,
  0x48, 0x43, 0x9c, 0xbd, 0x24, 0x6d, 0xa1, 0xbc, 0xdc, 0x31, 0x1d, 0xbe,
  0x38, 0x3a, 0x74, 0x3c, 0x91, 0x5d, 0x04, 0x3e, 0x2c, 0xf1, 0x88, 0xbd,
  0x64, 0xe7, 0x53, 0x3e, 0x93, 0x30, 0x13, 0xbe, 0x88, 0xbe, 0xa5, 0xbd,
  0x11, 0xde, 0xd8, 0x3d, 0x93, 0xa4, 0x91, 0x3d, 0x68, 0xd9, 0x9c, 0xbd,
  0x03, 0x17, 0x46, 0xbe, 0x03, 0xa6, 0x39, 0x3e, 0x10, 0xda, 0xe4, 0xba,
  0xd0, 0x79, 0x4b, 0x3e, 0x29, 0xd9, 0x38, 0x3e, 0x80, 0x0a, 0x49, 0x3d,
  0x1f, 0x50, 0x2f, 0xbe, 0xec, 0x07, 0x1a, 0xbe, 0x2a, 0x93, 0x39, 0x3c,
  0xec, 0x85, 0x3d, 0xbe, 0x6c, 0x0a, 0xc6, 0xbd, 0x8d, 0xc9, 0x7a, 0x3e,
  0x3e, 0x29, 0x02, 0xbe, 0xf3, 0xb7, 0xf0, 0x3d, 0x58, 0x7b, 0x0a, 0xbe,
  0x59, 0x11, 0x7c, 0xbd, 0x8c, 0xdd, 0xb9, 0xbd, 0xa5, 0x78, 0xd1, 0xbd,
  0xb6, 0x0d, 0xa2, 0x3d, 0x99, 0x3f, 0xae, 0xbd, 0xeb, 0x0c, 0x39, 0x3e,
  0xed, 0xb5, 0xa9, 0x3d, 0x48, 0xf3, 0xca, 0xbc, 0x1e, 0x86, 0xde, 0xbd,
  0x51, 0x64, 0xa4, 0x3d, 0x1c, 0x5a, 0x66, 0x3d, 0xdb, 0x4f, 0x70, 0x3d,
  0x06, 0x73, 0x53, 0xbe, 0x7d, 0x6f, 0x8a, 0x3d, 0x83, 0xa3, 0x56, 0xbc,
  0xe5, 0x55, 0x57, 0x3d, 0x35, 0xdf, 0x10, 0x3e, 0xb8, 0x1e, 0x24, 0x3c,
  0x76, 0xc5, 0x16, 0xbe, 0x4a, 0xe7, 0x34, 0x3e, 0xe0, 0x51, 0xcd, 0xbd,
  0x3e, 0x63, 0xb3, 0x3c, 0x76, 0x49, 0xd2, 0xbd, 0xf4, 0xaa, 0x43, 0xbb,
  0x27, 0x59, 0xb6, 0xbd, 0xa0, 0x6f, 0x71, 0x3e, 0xfe, 0xea, 0x26, 0xbd,
  0x86, 0x04, 0x85, 0xbd, 0xfd, 0xa0, 0x33, 0xbe, 0xb5, 0x2d, 0x0f, 0x3e,
  0x20, 0x4d, 0xbc, 0x3d, 0x20, 0xdd, 0x08, 0xbd, 0x60, 0x70, 0xe6, 0x3c,
  0x04, 0xa3, 0xae, 0xba, 0x8d, 0xe0, 0x8f, 0xbc, 0xc4, 0xa2, 0x10, 0xbd,
  0x4b, 0x01, 0xf6, 0xbd, 0x4c, 0xfc, 0xf3, 0x3d, 0xdf, 0x51, 0xf1, 0x3d,
  0x77, 0xa8, 0xed, 0x3b, 0x6b, 0x4d, 0x02, 0x3d, 0x09, 0xda, 0x64, 0xbe,
  0x74, 0xc0, 0x01, 0xbe, 0xf7, 0xf9, 0xdb, 0x3b, 0xf5, 0xdb, 0x6a, 0x3e,
  0xa8, 0x4f, 0x93, 0xbc, 0x75, 0xe9, 0x4c, 0xbe, 0x75, 0x67, 0x82, 0x3d,
  0x59, 0x9e, 0xca, 0x3c, 0xf6, 0x28, 0x54, 0xbd, 0xe0, 0xb6, 0xc7, 0xbc,
  0x5f, 0x16, 0x3d, 0xbd, 0xcf, 0xdd, 0x28, 0xbd, 0xb7, 0x94, 0x20, 0x3d,
  0xa2, 0xbc, 0x07, 0x3d, 0xff, 0x47, 0x6c, 0xbc, 0xbd, 0x50, 0x4b, 0xbe,
  0x2d, 0xc4, 0x02, 0xbd, 0xe7, 0xc1, 0x8d, 0x3d, 0x25, 0x67, 0x61, 0x3e,
  0x4f, 0xc0, 0x3b, 0xbe, 0x3b, 0xa2, 0x30, 0xbe, 0x09, 0x47, 0xaa, 0xbd,
  0xaa, 0xdd, 0x2b, 0xbe, 0xc3, 0x64, 0x64, 0xbd, 0x96, 0x88, 0x24, 0xba,
  0xa6, 0xdf, 0xbb, 0xbd, 0xf7, 0x56, 0x66, 0x3d, 0x17, 0x54, 0xb0, 0x3d,
  0x72, 0x60, 0xa0, 0x3d, 0x04, 0x70, 0x53, 0xbd, 0x52, 0xb1, 0xcb, 0x3c,
  0x4d, 0x9f, 0x3d, 0xbd, 0xe1, 0x7c, 0x72, 0xbc, 0x28, 0x9b, 0x2c, 0xbd,
  0x44, 0x1c, 0xc9, 0xbd, 0x37, 0xef, 0xc0, 0xbd, 0xcd, 0x79, 0xd8, 0xbc,
  0xd5, 0x46, 0x12, 0xbd, 0x67, 0xbc, 0x59, 0x3e, 0xfd, 0x92, 0xbc, 0xbd,
  0x16, 0x8f, 0xa1, 0xbd, 0x82, 0xc0, 0xcf, 0xbd, 0x0d, 0xbf, 0xa9, 0x3d,
  0xe4, 0x57, 0xfc, 0x3d, 0x9a, 0x1a, 0x4c, 0x3e, 0x90, 0x40, 0x88, 0xbd,
  0x46, 0x57, 0x99, 0xbd, 0xdd, 0x65, 0x11, 0xbe, 0xf8, 0x7e, 0x75, 0x3c,
  0xe4, 0x3b, 0x4b, 0xbe, 0x06, 0x68, 0x07, 0xbe, 0xe3, 0x2d, 0xee, 0x3d,
  0xab, 0x53, 0xa0, 0xbd, 0xeb, 0xdc, 0x1f, 0x3c, 0x5d, 0xff, 0x8f, 0x3d,
  0xb0, 0x5b, 0x21, 0xbd, 0x6e, 0x5d, 0xe8, 0x3d, 0x4a, 0xa2, 0xed, 0xbc,
  0xb5, 0x1d, 0x72, 0xbe, 0x5c, 0xb5, 0xae, 0xbb, 0xdf, 0x6c, 0x7a, 0xbe,
  0xfb, 0x08, 0x5f, 0xbd, 0x41, 0xea, 0xbe, 0xbc, 0xfe, 0xde, 0x4f, 0xbb,
  0xec, 0xdc, 0x21, 0x3d, 0x7e, 0x7e, 0x0c, 0x3e, 0x2a, 0xee, 0xe7, 0xbd,
  0x6e, 0xaa, 0xf1, 0x3c, 0x26, 0xed, 0xf5, 0xbc, 0xa6, 0xc4, 0xa2, 0x3d,
  0x89, 0xf1, 0xd8, 0x3b, 0xa7, 0x86, 0x14, 0x3e, 0x31, 0x4f, 0x02, 0xbd,
  0xe7, 0x38, 0x44, 0xbd, 0x6a, 0x7a, 0x19, 0xbe, 0x52, 0x95, 0x5b, 0x3e,
  0x9d, 0xdb, 0x60, 0x3d, 0xc2, 0x9a, 0x95, 0x3c, 0xc6, 0x76, 0x10, 0x3b,
  0xaf, 0xd9, 0x00, 0xbc, 0x27, 0xd1, 0x39, 0xbe, 0x3c, 0x01, 0x05, 0xbe,
  0xa3, 0xe1, 0x1a, 0xbd, 0x48, 0x94, 0x8b, 0x3e, 0x45, 0xd6, 0x87, 0xbe,
  0xd8, 0x4f, 0xec, 0x3d, 0xfd, 0x98, 0x46, 0xbd, 0x2e, 0xa3, 0x07, 0xbe,
  0xf9, 0x08, 0x27, 0xbd, 0x66, 0x68, 0x2e, 0xbe, 0xb4, 0x94, 0x61, 0x3d,
  0xa7, 0x19, 0x5a, 0xbe, 0x36, 0x69, 0xe6, 0x3d, 0xf9, 0xa2, 0x24, 0xbe,
  0xd9, 0x28, 0x07, 0x3e, 0x48, 0x70, 0x22, 0xbd, 0x65, 0x57, 0x9e, 0x3d,
  0x47, 0xd7, 0x42, 0xbd, 0x64, 0x54, 0xb7, 0x3d, 0x74, 0x4a, 0x44, 0xbe,
  0xc6, 0x14, 0xc9, 0xbb, 0x2e, 0x2a, 0x1f, 0xbe, 0x24, 0xba, 0xd9, 0xbb,
  0xf2, 0xff, 0x4f, 0xbd, 0xd0, 0xa8, 0x04, 0x3e, 0x3b, 0x62, 0x61, 0x3d,
  0x85, 0x85, 0x0a, 0xbe, 0x16, 0x1e, 0x18, 0xbe, 0x56, 0xb7, 0x1b, 0x3b,
  0xe5, 0xa7, 0xce, 0x3d, 0x1c, 0x8d, 0xc0, 0xbc, 0xb1, 0xef, 0x1d, 0x3e,
  0x0e, 0x2f, 0xb6, 0xbc, 0x0a, 0xec, 0x8c, 0xbd, 0x9a, 0x12, 0x24, 0x3d,
  0x67, 0x45, 0xcb, 0xbd, 0x40, 0x63, 0x6b, 0x3d, 0xce, 0xf7, 0x2c, 0x3e,
  0x21, 0x1e, 0xca, 0xbd, 0x17, 0x17, 0x53, 0xbd, 0x6e, 0xfc, 0x05, 0xbe,
  0x53, 0x17, 0x1e, 0xbe, 0xcc, 0x0e, 0x2b, 0x3d, 0x82, 0x52, 0x9e, 0xbd,
  0xe2, 0xf4, 0xf3, 0xbd, 0xc5, 0xba, 0x9d, 0xbd, 0xce, 0x40, 0x4b, 0x3d,
  0xad, 0x67, 0xc5, 0x3b, 0xf4, 0x7c, 0x77, 0xbd, 0x65, 0xd0, 0xee, 0xbc,
  0xd8, 0x4d, 0x05, 0x3d, 0xbb, 0x74, 0xa4, 0x3d, 0x7d, 0x4e, 0xcb, 0xbd,
  0xe1, 0x0d, 0x87, 0xbd, 0x97, 0x7a, 0x66, 0x3c, 0xbc, 0xce, 0x9f, 0xbd,
  0x83, 0x0d, 0x41, 0x3e, 0x30, 0x35, 0x82, 0x3e, 0x07, 0xef, 0xb8, 0xbd,
  0x1d, 0x7c, 0x20, 0x3e, 0x74, 0xcb, 0x77, 0x3d, 0xf5, 0xe6, 0x05, 0xba,
  0x62, 0xf8, 0x37, 0x3e, 0x84, 0x73, 0xa5, 0x3d, 0xef, 0xf6, 0x3a, 0x3e,
  0x36, 0x9c, 0x95, 0xbd, 0x52, 0x8c, 0x0a, 0x3e, 0x75, 0xc1, 0xed, 0x3d,
  0x35, 0x71, 0x20, 0x3e, 0x67, 0xfe, 0x1d, 0x3e, 0xc9, 0x30, 0x35, 0xbe,
  0x46, 0xd6, 0xde, 0x3d, 0xc7, 0x94, 0xc6, 0x3d, 0x7c, 0x2d, 0xa6, 0xbc,
  0x1c, 0xac, 0xcc, 0xbd, 0x16, 0xac, 0x75, 0x3e, 0x7d, 0x0e, 0xea, 0x3b,
  0x93, 0x66, 0xf3, 0xbd, 0xfb, 0x1f, 0x1d, 0x3e, 0x11, 0x2b, 0x63, 0xbc,
  0x16, 0x2b, 0x8b, 0x3d, 0xf3, 0xbf, 0xf8, 0x3d, 0x36, 0xc5, 0x98, 0xbd,
  0x15, 0xe8, 0xed, 0xbc, 0x68, 0x7b, 0xa6, 0xbd, 0xa2, 0x1f, 0x75, 0xbe,
  0x80, 0xd1, 0x3b, 0xbe, 0xe7, 0xdf, 0x9b, 0x3d, 0x34, 0x17, 0x50, 0xbe,
  0xbb, 0xb7, 0xfc, 0x3d, 0x43, 0xcb, 0x16, 0x3d, 0x2c, 0x0e, 0x26, 0x3c,
  0xb0, 0x48, 0x8a, 0xbe, 0x2c, 0x02, 0x07, 0x3e, 0xc1, 0x61, 0xcc, 0xbb,
  0xff, 0xc1, 0x68, 0x3e, 0x2a, 0x9c, 0x12, 0x3d, 0xd0, 0x24, 0x01, 0xbe,
  0xc1, 0xcd, 0x75, 0x3d, 0xb6, 0x20, 0x19, 0xbd, 0x55, 0x01, 0x14, 0x3e,
  0xb8, 0xe2, 0xdf, 0x3c, 0xf2, 0x80, 0x91, 0x3d, 0x1b, 0x6c, 0x2e, 0xbe,
  0x71, 0x55, 0x96, 0xbc, 0x3d, 0xa7, 0x03, 0x3d, 0x4d, 0xc4, 0x63, 0xbe,
  0xee, 0x8a, 0x37, 0x3e, 0x73, 0x90, 0xf8, 0xbd, 0x25, 0xb6, 0x5b, 0xbe,
  0x66, 0x33, 0xa5, 0x3d, 0x68, 0x34, 0x83, 0xbd, 0x57, 0x49, 0xf1, 0x3b,
  0x3c, 0xb5, 0x34, 0x3d, 0x5c, 0x82, 0x96, 0x3c, 0x5c, 0x21, 0x4c, 0xbe,
  0xbf, 0x25, 0x85, 0x3c, 0xf6, 0x22, 0x61, 0x3d, 0x72, 0xdc, 0xed, 0xbc,
  0xc4, 0x75, 0xab, 0xbc, 0x7e, 0x17, 0xf4, 0x3d, 0x1e, 0x10, 0xcf, 0x3c,
  0x89, 0x7f, 0xa8, 0x3c, 0xb6, 0xa4, 0x38, 0xbe, 0x55, 0x0f, 0xf8, 0x3d,
  0xfa, 0x47, 0x41, 0x3d, 0x59, 0x9e, 0x33, 0x3e, 0xda, 0x82, 0x29, 0xbe,
  0xe5, 0xd8, 0xbd, 0x3d, 0xf2, 0x41, 0x4a, 0xbe, 0xc2, 0x73, 0x55, 0x3d,
  0x35, 0xb9, 0xd9, 0x3d, 0x3c, 0xdc, 0xec, 0x3d, 0x98, 0x19, 0x89, 0x3e,
  0xd2, 0xae, 0x1a, 0xbd, 0x85, 0xff, 0x42, 0xbc, 0xf6, 0xc3, 0x3f, 0x3e,
  0x7f, 0x37, 0x87, 0xbd, 0xa6, 0xe4, 0xc9, 0x3d, 0x49, 0xdc, 0x48, 0x3d,
  0xf4, 0xf2, 0x13, 0xbe, 0x11, 0x59, 0x3b, 0x3e, 0x3d, 0xb8, 0x8a, 0xbd,
  0xf1, 0xb1, 0x83, 0x3d, 0x35, 0xf6, 0x20, 0x3e, 0xe4, 0x2b, 0xc7, 0x3d,
  0xe4, 0x66, 0xc8, 0x3d, 0xdc, 0x8e, 0x0d, 0x3e, 0x24, 0x6c, 0xab, 0xbc,
  0xb4, 0xeb, 0x87, 0x3b, 0xbf, 0x3c, 0xa5, 0xbd, 0xdf, 0x6d, 0xaf, 0xbd,
  0x98, 0x66, 0x50, 0x3d, 0x9f, 0x11, 0xcf, 0xbd, 0xce, 0xb7, 0x7b, 0x3d,
  0xeb, 0x76, 0x45, 0x3e, 0xbe, 0xd9, 0xb7, 0x3b, 0x14, 0xc0, 0x27, 0x3e,
  0xee, 0xfe, 0xff, 0xff, 0x04, 0x00, 0x00, 0x00, 0x08, 0x00, 0x00, 0x00,
  0xff, 0xff, 0xff, 0xff, 0x6c, 0x00, 0x00, 0x00, 0x02, 0xff, 0xff, 0xff,
  0x04, 0x00, 0x00, 0x00, 0x08, 0x00, 0x00, 0x00, 0x2f, 0x07, 0xe7, 0x3c,
  0xc2, 0x32, 0x59, 0xbd, 0x16, 0xff, 0xff, 0xff, 0x04, 0x00, 0x00, 0x00,
  0x50, 0x00, 0x00, 0x00, 0xf7, 0xf6, 0xb0, 0x3b, 0xa0, 0x02, 0xb3, 0xbc,
  0xa6, 0x0f, 0xb2, 0xbc, 0x73, 0x84, 0x4a, 0x3c, 0xdb, 0x8c, 0xc9, 0xbb,
  0x1a, 0xbd, 0x88, 0xbc, 0x20, 0x94, 0x76, 0x3c, 0xf7, 0xd2, 0x64, 0x3c,
  0xea, 0x00, 0x84, 0x3c, 0x0e, 0x57, 0xb1, 0x3b, 0x74, 0xc3, 0x9e, 0xbc,
  0x16, 0x13, 0x4a, 0x3c, 0x84, 0x07, 0x23, 0x3c, 0x63, 0x14, 0x9b, 0x3c,
  0x2a, 0xd6, 0xc7, 0x3b, 0x5a, 0x12, 0x6c, 0x3c, 0xad, 0x79, 0x8d, 0x3c,
  0x7a, 0xfb, 0xb2, 0x3c, 0x6d, 0x1c, 0xc9, 0x3b, 0x66, 0x21, 0x5e, 0xba,
  0x5c, 0xf8, 0xff, 0xff, 0x60, 0xf8, 0xff, 0xff, 0x0f, 0x00, 0x00, 0x00,
  0x4d, 0x4c, 0x49, 0x52, 0x20, 0x43, 0x6f, 0x6e, 0x76, 0x65, 0x72, 0x74,
  0x65, 0x64, 0x2e, 0x00, 0x01, 0x00, 0x00, 0x00, 0x14, 0x00, 0x00, 0x00,
  0x00, 0x00, 0x0e, 0x00, 0x18, 0x00, 0x14, 0x00, 0x10, 0x00, 0x0c, 0x00,
  0x08, 0x00, 0x04, 0x00, 0x0e, 0x00, 0x00, 0x00, 0x14, 0x00, 0x00, 0x00,
  0x1c, 0x00, 0x00, 0x00, 0x78, 0x01, 0x00, 0x00, 0x7c, 0x01, 0x00, 0x00,
  0x80, 0x01, 0x00, 0x00, 0x04, 0x00, 0x00, 0x00, 0x6d, 0x61, 0x69, 0x6e,
  0x00, 0x00, 0x00, 0x00, 0x06, 0x00, 0x00, 0x00, 0x3c, 0x01, 0x00, 0x00,
  0xf8, 0x00, 0x00, 0x00, 0xb0, 0x00, 0x00, 0x00, 0x78, 0x00, 0x00, 0x00,
  0x40, 0x00, 0x00, 0x00, 0x04, 0x00, 0x00, 0x00, 0x2a, 0xff, 0xff, 0xff,
  0x1c, 0x00, 0x00, 0x00, 0x00, 0x00, 0x00, 0x09, 0x1c, 0x00, 0x00, 0x00,
  0x20, 0x00, 0x00, 0x00, 0x02, 0x00, 0x00, 0x00, 0x00, 0x00, 0x06, 0x00,
  0x08, 0x00, 0x04, 0x00, 0x06, 0x00, 0x00, 0x00, 0x00, 0x00, 0x80, 0x3f,
  0x01, 0x00, 0x00, 0x00, 0x0d, 0x00, 0x00, 0x00, 0x01, 0x00, 0x00, 0x00,
  0x0c, 0x00, 0x00, 0x00, 0x62, 0xff, 0xff, 0xff, 0x14, 0x00, 0x00, 0x00,
  0x00, 0x00, 0x00, 0x08, 0x10, 0x00, 0x00, 0x00, 0x14, 0x00, 0x00, 0x00,
  0x01, 0x00, 0x00, 0x00, 0x20, 0xf9, 0xff, 0xff, 0x01, 0x00, 0x00, 0x00,
  0x0c, 0x00, 0x00, 0x00, 0x03, 0x00, 0x00, 0x00, 0x0b, 0x00, 0x00, 0x00,
  0x07, 0x00, 0x00, 0x00, 0x02, 0x00, 0x00, 0x00, 0x96, 0xff, 0xff, 0xff,
  0x14, 0x00, 0x00, 0x00, 0x00, 0x00, 0x00, 0x08, 0x10, 0x00, 0x00, 0x00,
  0x14, 0x00, 0x00, 0x00, 0x01, 0x00, 0x00, 0x00, 0x54, 0xf9, 0xff, 0xff,
  0x01, 0x00, 0x00, 0x00, 0x0b, 0x00, 0x00, 0x00, 0x03, 0x00, 0x00, 0x00,
  0x0a, 0x00, 0x00, 0x00, 0x06, 0x00, 0x00, 0x00, 0xff, 0xff, 0xff, 0xff,
  0xca, 0xff, 0xff, 0xff, 0x14, 0x00, 0x00, 0x00, 0x00, 0x00, 0x00, 0x08,
  0x10, 0x00, 0x00, 0x00, 0x14, 0x00, 0x00, 0x00, 0x01, 0x00, 0x00, 0x00,
  0x88, 0xf9, 0xff, 0xff, 0x01, 0x00, 0x00, 0x00, 0x0a, 0x00, 0x00, 0x00,
  0x03, 0x00, 0x00, 0x00, 0x09, 0x00, 0x00, 0x00, 0x05, 0x00, 0x00, 0x00,
  0x01, 0x00, 0x00, 0x00, 0x00, 0x00, 0x0e, 0x00, 0x18, 0x00, 0x14, 0x00,
  0x10, 0x00, 0x0c, 0x00, 0x0b, 0x00, 0x04, 0x00, 0x0e, 0x00, 0x00, 0x00,
  0x14, 0x00, 0x00, 0x00, 0x00, 0x00, 0x00, 0x08, 0x10, 0x00, 0x00, 0x00,
  0x14, 0x00, 0x00, 0x00, 0x01, 0x00, 0x00, 0x00, 0xcc, 0xf9, 0xff, 0xff,
  0x01, 0x00, 0x00, 0x00, 0x09, 0x00, 0x00, 0x00, 0x03, 0x00, 0x00, 0x00,
  0x08, 0x00, 0x00, 0x00, 0x04, 0x00, 0x00, 0x00, 0xff, 0xff, 0xff, 0xff,
  0x00, 0x00, 0x0a, 0x00, 0x0c, 0x00, 0x00, 0x00, 0x08, 0x00, 0x04, 0x00,
  0x0a, 0x00, 0x00, 0x00, 0x08, 0x00, 0x00, 0x00, 0x0c, 0x00, 0x00, 0x00,
  0x01, 0x00, 0x00, 0x00, 0x08, 0x00, 0x00, 0x00, 0x02, 0x00, 0x00, 0x00,
  0x00, 0x00, 0x00, 0x00, 0x03, 0x00, 0x00, 0x00, 0x01, 0x00, 0x00, 0x00,
  0x0d, 0x00, 0x00, 0x00, 0x01, 0x00, 0x00, 0x00, 0x00, 0x00, 0x00, 0x00,
  0x0e, 0x00, 0x00, 0x00, 0xac, 0x05, 0x00, 0x00, 0x24, 0x05, 0x00, 0x00,
  0x9c, 0x04, 0x00, 0x00, 0x48, 0x04, 0x00, 0x00, 0xdc, 0x03, 0x00, 0x00,
  0x88, 0x03, 0x00, 0x00, 0x34, 0x03, 0x00, 0x00, 0xe0, 0x02, 0x00, 0x00,
  0x78, 0x02, 0x00, 0x00, 0x14, 0x02, 0x00, 0x00, 0x6c, 0x01, 0x00, 0x00,
  0x08, 0x01, 0x00, 0x00, 0x60, 0x00, 0x00, 0x00, 0x04, 0x00, 0x00, 0x00,
  0xa2, 0xfa, 0xff, 0xff, 0x00, 0x00, 0x00, 0x01, 0x14, 0x00, 0x00, 0x00,
  0x1c, 0x00, 0x00, 0x00, 0x1c, 0x00, 0x00, 0x00, 0x0e, 0x00, 0x00, 0x00,
  0x34, 0x00, 0x00, 0x00, 0x02, 0x00, 0x00, 0x00, 0xff, 0xff, 0xff, 0xff,
  0x02, 0x00, 0x00, 0x00, 0x88, 0xfa, 0xff, 0xff, 0x19, 0x00, 0x00, 0x00,
  0x53, 0x74, 0x61, 0x74, 0x65, 0x66, 0x75, 0x6c, 0x50, 0x61, 0x72, 0x74,
  0x69, 0x74, 0x69, 0x6f, 0x6e, 0x65, 0x64, 0x43, 0x61, 0x6c, 0x6c, 0x3a,
  0x30, 0x00, 0x00, 0x00, 0x02, 0x00, 0x00, 0x00, 0x01, 0x00, 0x00, 0x00,
  0x02, 0x00, 0x00, 0x00, 0xfa, 0xfa, 0xff, 0xff, 0x00, 0x00, 0x00, 0x01,
  0x14, 0x00, 0x00, 0x00, 0x1c, 0x00, 0x00, 0x00, 0x1c, 0x00, 0x00, 0x00,
  0x0d, 0x00, 0x00, 0x00, 0x80, 0x00, 0x00, 0x00, 0x02, 0x00, 0x00, 0x00,
  0xff, 0xff, 0xff, 0xff, 0x02, 0x00, 0x00, 0x00, 0xe0, 0xfa, 0xff, 0xff,
  0x64, 0x00, 0x00, 0x00, 0x73, 0x65, 0x71, 0x75, 0x65, 0x6e, 0x74, 0x69,
  0x61, 0x6c, 0x5f, 0x31, 0x2f, 0x64, 0x65, 0x6e, 0x73, 0x65, 0x5f, 0x44,
  0x65, 0x6e, 0x73, 0x65, 0x33, 0x2f, 0x42, 0x69, 0x61, 0x73, 0x41, 0x64,
  0x64, 0x3b, 0x73, 0x65, 0x71, 0x75, 0x65, 0x6e, 0x74, 0x69, 0x61, 0x6c,
  0x5f, 0x31, 0x2f, 0x64, 0x65, 0x6e, 0x73, 0x65, 0x5f, 0x44, 0x65, 0x6e,
  0x73, 0x65, 0x34, 0x2f, 0x4d, 0x61, 0x74, 0x4d, 0x75, 0x6c, 0x3b, 0x73,
  0x65, 0x71, 0x75, 0x65, 0x6e, 0x74, 0x69, 0x61, 0x6c, 0x5f, 0x31, 0x2f,
  0x64, 0x65, 0x6e, 0x73, 0x65, 0x5f, 0x44, 0x65, 0x6e, 0x73, 0x65, 0x34,
  0x2f, 0x42, 0x69, 0x61, 0x73, 0x41, 0x64, 0x64, 0x00, 0x00, 0x00, 0x00,
  0x02, 0x00, 0x00, 0x00, 0x01, 0x00, 0x00, 0x00, 0x02, 0x00, 0x00, 0x00,
  0x9e, 0xfb, 0xff, 0xff, 0x00, 0x00, 0x00, 0x01, 0x14, 0x00, 0x00, 0x00,
  0x1c, 0x00, 0x00, 0x00, 0x1c, 0x00, 0x00, 0x00, 0x0c, 0x00, 0x00, 0x00,
  0x3c, 0x00, 0x00, 0x00, 0x02, 0x00, 0x00, 0x00, 0xff, 0xff, 0xff, 0xff,
  0x1e, 0x00, 0x00, 0x00, 0x84, 0xfb, 0xff, 0xff, 0x21, 0x00, 0x00, 0x00,
  0x73, 0x65, 0x71, 0x75, 0x65, 0x6e, 0x74, 0x69, 0x61, 0x6c, 0x5f, 0x31,
  0x2f, 0x64, 0x65, 0x6e, 0x73, 0x65, 0x5f, 0x44, 0x65, 0x6e, 0x73, 0x65,
  0x33, 0x2f, 0x4d, 0x61, 0x74, 0x4d, 0x75, 0x6c, 0x31, 0x00, 0x00, 0x00,
  0x02, 0x00, 0x00, 0x00, 0x01, 0x00, 0x00, 0x00, 0x1e, 0x00, 0x00, 0x00,
  0xfe, 0xfb, 0xff, 0xff, 0x00, 0x00, 0x00, 0x01, 0x14, 0x00, 0x00, 0x00,
  0x1c, 0x00, 0x00, 0x00, 0x1c, 0x00, 0x00, 0x00, 0x0b, 0x00, 0x00, 0x00,
  0x80, 0x00, 0x00, 0x00, 0x02, 0x00, 0x00, 0x00, 0xff, 0xff, 0xff, 0xff,
  0x14, 0x00, 0x00, 0x00, 0xe4, 0xfb, 0xff, 0xff, 0x64, 0x00, 0x00, 0x00,
  0x73, 0x65, 0x71, 0x75, 0x65, 0x6e, 0x74, 0x69, 0x61, 0x6c, 0x5f, 0x31,
  0x2f, 0x64, 0x65, 0x6e, 0x73, 0x65, 0x5f, 0x44, 0x65, 0x6e, 0x73, 0x65,
  0x31, 0x2f, 0x42, 0x69, 0x61, 0x73, 0x41, 0x64, 0x64, 0x3b, 0x73, 0x65,
  0x71, 0x75, 0x65, 0x6e, 0x74, 0x69, 0x61, 0x6c, 0x5f, 0x31, 0x2f, 0x64,
  0x65, 0x6e, 0x73, 0x65, 0x5f, 0x44, 0x65, 0x6e, 0x73, 0x65, 0x32, 0x2f,
  0x4d, 0x61, 0x74, 0x4d, 0x75, 0x6c, 0x3b, 0x73, 0x65, 0x71, 0x75, 0x65,
  0x6e, 0x74, 0x69, 0x61, 0x6c, 0x5f, 0x31, 0x2f, 0x64, 0x65, 0x6e, 0x73,
  0x65, 0x5f, 0x44, 0x65, 0x6e, 0x73, 0x65, 0x32, 0x2f, 0x42, 0x69, 0x61,
  0x73, 0x41, 0x64, 0x64, 0x00, 0x00, 0x00, 0x00, 0x02, 0x00, 0x00, 0x00,
  0x01, 0x00, 0x00, 0x00, 0x14, 0x00, 0x00, 0x00, 0xa2, 0xfc, 0xff, 0xff,
  0x00, 0x00, 0x00, 0x01, 0x14, 0x00, 0x00, 0x00, 0x1c, 0x00, 0x00, 0x00,
  0x1c, 0x00, 0x00, 0x00, 0x0a, 0x00, 0x00, 0x00, 0x3c, 0x00, 0x00, 0x00,
  0x02, 0x00, 0x00, 0x00, 0xff, 0xff, 0xff, 0xff, 0x08, 0x00, 0x00, 0x00,
  0x88, 0xfc, 0xff, 0xff, 0x21, 0x00, 0x00, 0x00, 0x73, 0x65, 0x71, 0x75,
  0x65, 0x6e, 0x74, 0x69, 0x61, 0x6c, 0x5f, 0x31, 0x2f, 0x64, 0x65, 0x6e,
  0x73, 0x65, 0x5f, 0x44, 0x65, 0x6e, 0x73, 0x65, 0x31, 0x2f, 0x4d, 0x61,
  0x74, 0x4d, 0x75, 0x6c, 0x32, 0x00, 0x00, 0x00, 0x02, 0x00, 0x00, 0x00,
  0x01, 0x00, 0x00, 0x00, 0x08, 0x00, 0x00, 0x00, 0x02, 0xfd, 0xff, 0xff,
  0x00, 0x00, 0x00, 0x01, 0x14, 0x00, 0x00, 0x00, 0x1c, 0x00, 0x00, 0x00,
  0x1c, 0x00, 0x00, 0x00, 0x09, 0x00, 0x00, 0x00, 0x40, 0x00, 0x00, 0x00,
  0x02, 0x00, 0x00, 0x00, 0xff, 0xff, 0xff, 0xff, 0x6c, 0x00, 0x00, 0x00,
  0xe8, 0xfc, 0xff, 0xff, 0x25, 0x00, 0x00, 0x00, 0x73, 0x65, 0x71, 0x75,
  0x65, 0x6e, 0x74, 0x69, 0x61, 0x6c, 0x5f, 0x31, 0x2f, 0x66, 0x6c, 0x61,
  0x74, 0x74, 0x65, 0x6e, 0x5f, 0x46, 0x6c, 0x61, 0x74, 0x74, 0x65, 0x6e,
  0x31, 0x2f, 0x52, 0x65, 0x73, 0x68, 0x61, 0x70, 0x65, 0x00, 0x00, 0x00,
  0x02, 0x00, 0x00, 0x00, 0x01, 0x00, 0x00, 0x00, 0x6c, 0x00, 0x00, 0x00,
  0xea, 0xfd, 0xff, 0xff, 0x00, 0x00, 0x00, 0x01, 0x10, 0x00, 0x00, 0x00,
  0x10, 0x00, 0x00, 0x00, 0x08, 0x00, 0x00, 0x00, 0x30, 0x00, 0x00, 0x00,
  0x3c, 0xfd, 0xff, 0xff, 0x20, 0x00, 0x00, 0x00, 0x73, 0x65, 0x71, 0x75,
  0x65, 0x6e, 0x74, 0x69, 0x61, 0x6c, 0x5f, 0x31, 0x2f, 0x64, 0x65, 0x6e,
  0x73, 0x65, 0x5f, 0x44, 0x65, 0x6e, 0x73, 0x65, 0x34, 0x2f, 0x4d, 0x61,
  0x74, 0x4d, 0x75, 0x6c, 0x00, 0x00, 0x00, 0x00, 0x02, 0x00, 0x00, 0x00,
  0x02, 0x00, 0x00, 0x00, 0x1e, 0x00, 0x00, 0x00, 0x3a, 0xfe, 0xff, 0xff,
  0x00, 0x00, 0x00, 0x01, 0x10, 0x00, 0x00, 0x00, 0x10, 0x00, 0x00, 0x00,
  0x07, 0x00, 0x00, 0x00, 0x30, 0x00, 0x00, 0x00, 0x8c, 0xfd, 0xff, 0xff,
  0x20, 0x00, 0x00, 0x00, 0x73, 0x65, 0x71, 0x75, 0x65, 0x6e, 0x74, 0x69,
  0x61, 0x6c, 0x5f, 0x31, 0x2f, 0x64, 0x65, 0x6e, 0x73, 0x65, 0x5f, 0x44,
  0x65, 0x6e, 0x73, 0x65, 0x33, 0x2f, 0x4d, 0x61, 0x74, 0x4d, 0x75, 0x6c,
  0x00, 0x00, 0x00, 0x00, 0x02, 0x00, 0x00, 0x00, 0x1e, 0x00, 0x00, 0x00,
  0x14, 0x00, 0x00, 0x00, 0x8a, 0xfe, 0xff, 0xff, 0x00, 0x00, 0x00, 0x01,
  0x10, 0x00, 0x00, 0x00, 0x10, 0x00, 0x00, 0x00, 0x06, 0x00, 0x00, 0x00,
  0x30, 0x00, 0x00, 0x00, 0xdc, 0xfd, 0xff, 0xff, 0x20, 0x00, 0x00, 0x00,
  0x73, 0x65, 0x71, 0x75, 0x65, 0x6e, 0x74, 0x69, 0x61, 0x6c, 0x5f, 0x31,
  0x2f, 0x64, 0x65, 0x6e, 0x73, 0x65, 0x5f, 0x44, 0x65, 0x6e, 0x73, 0x65,
  0x32, 0x2f, 0x4d, 0x61, 0x74, 0x4d, 0x75, 0x6c, 0x00, 0x00, 0x00, 0x00,
  0x02, 0x00, 0x00, 0x00, 0x14, 0x00, 0x00, 0x00, 0x08, 0x00, 0x00, 0x00,
  0xda, 0xfe, 0xff, 0xff, 0x00, 0x00, 0x00, 0x01, 0x10, 0x00, 0x00, 0x00,
  0x10, 0x00, 0x00, 0x00, 0x05, 0x00, 0x00, 0x00, 0x30, 0x00, 0x00, 0x00,
  0x2c, 0xfe, 0xff, 0xff, 0x21, 0x00, 0x00, 0x00, 0x73, 0x65, 0x71, 0x75,
  0x65, 0x6e, 0x74, 0x69, 0x61, 0x6c, 0x5f, 0x31, 0x2f, 0x64, 0x65, 0x6e,
  0x73, 0x65, 0x5f, 0x44, 0x65, 0x6e, 0x73, 0x65, 0x31, 0x2f, 0x4d, 0x61,
  0x74, 0x4d, 0x75, 0x6c, 0x31, 0x00, 0x00, 0x00, 0x02, 0x00, 0x00, 0x00,
  0x08, 0x00, 0x00, 0x00, 0x6c, 0x00, 0x00, 0x00, 0x00, 0x00, 0x16, 0x00,
  0x1c, 0x00, 0x18, 0x00, 0x17, 0x00, 0x10, 0x00, 0x0c, 0x00, 0x08, 0x00,
  0x00, 0x00, 0x00, 0x00, 0x00, 0x00, 0x07, 0x00, 0x16, 0x00, 0x00, 0x00,
  0x00, 0x00, 0x00, 0x01, 0x14, 0x00, 0x00, 0x00, 0x14, 0x00, 0x00, 0x00,
  0x04, 0x00, 0x00, 0x00, 0x00, 0x00, 0x00, 0x02, 0x30, 0x00, 0x00, 0x00,
  0x98, 0xfe, 0xff, 0xff, 0x23, 0x00, 0x00, 0x00, 0x73, 0x65, 0x71, 0x75,
  0x65, 0x6e, 0x74, 0x69, 0x61, 0x6c, 0x5f, 0x31, 0x2f, 0x66, 0x6c, 0x61,
  0x74, 0x74, 0x65, 0x6e, 0x5f, 0x46, 0x6c, 0x61, 0x74, 0x74, 0x65, 0x6e,
  0x31, 0x2f, 0x43, 0x6f, 0x6e, 0x73, 0x74, 0x00, 0x01, 0x00, 0x00, 0x00,
  0x02, 0x00, 0x00, 0x00, 0x92, 0xff, 0xff, 0xff, 0x00, 0x00, 0x00, 0x01,
  0x10, 0x00, 0x00, 0x00, 0x10, 0x00, 0x00, 0x00, 0x03, 0x00, 0x00, 0x00,
  0x50, 0x00, 0x00, 0x00, 0xe4, 0xfe, 0xff, 0xff, 0x42, 0x00, 0x00, 0x00,
  0x73, 0x65, 0x71, 0x75, 0x65, 0x6e, 0x74, 0x69, 0x61, 0x6c, 0x5f, 0x31,
  0x2f, 0x64, 0x65, 0x6e, 0x73, 0x65, 0x5f, 0x44, 0x65, 0x6e, 0x73, 0x65,
  0x34, 0x2f, 0x4d, 0x61, 0x74, 0x4d, 0x75, 0x6c, 0x3b, 0x73, 0x65, 0x71,
  0x75, 0x65, 0x6e, 0x74, 0x69, 0x61, 0x6c, 0x5f, 0x31, 0x2f, 0x64, 0x65,
  0x6e, 0x73, 0x65, 0x5f, 0x44, 0x65, 0x6e, 0x73, 0x65, 0x34, 0x2f, 0x42,
  0x69, 0x61, 0x73, 0x41, 0x64, 0x64, 0x00, 0x00, 0x01, 0x00, 0x00, 0x00,
  0x02, 0x00, 0x00, 0x00, 0x00, 0x00, 0x16, 0x00, 0x18, 0x00, 0x14, 0x00,
  0x00, 0x00, 0x10, 0x00, 0x0c, 0x00, 0x08, 0x00, 0x00, 0x00, 0x00, 0x00,
  0x00, 0x00, 0x07, 0x00, 0x16, 0x00, 0x00, 0x00, 0x00, 0x00, 0x00, 0x01,
  0x10, 0x00, 0x00, 0x00, 0x10, 0x00, 0x00, 0x00, 0x02, 0x00, 0x00, 0x00,
  0x50, 0x00, 0x00, 0x00, 0x68, 0xff, 0xff, 0xff, 0x42, 0x00, 0x00, 0x00,
  0x73, 0x65, 0x71, 0x75, 0x65, 0x6e, 0x74, 0x69, 0x61, 0x6c, 0x5f, 0x31,
  0x2f, 0x64, 0x65, 0x6e, 0x73, 0x65, 0x5f, 0x44, 0x65, 0x6e, 0x73, 0x65,
  0x32, 0x2f, 0x4d, 0x61, 0x74, 0x4d, 0x75, 0x6c, 0x3b, 0x73, 0x65, 0x71,
  0x75, 0x65, 0x6e, 0x74, 0x69, 0x61, 0x6c, 0x5f, 0x31, 0x2f, 0x64, 0x65,
  0x6e, 0x73, 0x65, 0x5f, 0x44, 0x65, 0x6e, 0x73, 0x65, 0x32, 0x2f, 0x42,
  0x69, 0x61, 0x73, 0x41, 0x64, 0x64, 0x00, 0x00, 0x01, 0x00, 0x00, 0x00,
  0x14, 0x00, 0x00, 0x00, 0x00, 0x00, 0x16, 0x00, 0x1c, 0x00, 0x18, 0x00,
  0x00, 0x00, 0x14, 0x00, 0x10, 0x00, 0x0c, 0x00, 0x00, 0x00, 0x00, 0x00,
  0x08, 0x00, 0x07, 0x00, 0x16, 0x00, 0x00, 0x00, 0x00, 0x00, 0x00, 0x01,
  0x14, 0x00, 0x00, 0x00, 0x24, 0x00, 0x00, 0x00, 0x24, 0x00, 0x00, 0x00,
  0x01, 0x00, 0x00, 0x00, 0x4c, 0x00, 0x00, 0x00, 0x03, 0x00, 0x00, 0x00,
  0xff, 0xff, 0xff, 0xff, 0x24, 0x00, 0x00, 0x00, 0x03, 0x00, 0x00, 0x00,
  0x04, 0x00, 0x04, 0x00, 0x04, 0x00, 0x00, 0x00, 0x28, 0x00, 0x00, 0x00,
  0x73, 0x65, 0x72, 0x76, 0x69, 0x6e, 0x67, 0x5f, 0x64, 0x65, 0x66, 0x61,
  0x75, 0x6c, 0x74, 0x5f, 0x66, 0x6c, 0x61, 0x74, 0x74, 0x65, 0x6e, 0x5f,
  0x46, 0x6c, 0x61, 0x74, 0x74, 0x65, 0x6e, 0x31, 0x5f, 0x69, 0x6e, 0x70,
  0x75, 0x74, 0x3a, 0x30, 0x00, 0x00, 0x00, 0x00, 0x03, 0x00, 0x00, 0x00,
  0x01, 0x00, 0x00, 0x00, 0x24, 0x00, 0x00, 0x00, 0x03, 0x00, 0x00, 0x00,
  0x03, 0x00, 0x00, 0x00, 0x30, 0x00, 0x00, 0x00, 0x14, 0x00, 0x00, 0x00,
  0x04, 0x00, 0x00, 0x00, 0xe8, 0xff, 0xff, 0xff, 0x19, 0x00, 0x00, 0x00,
  0x00, 0x00, 0x00, 0x19, 0xf4, 0xff, 0xff, 0xff, 0x09, 0x00, 0x00, 0x00,
  0x00, 0x00, 0x00, 0x09, 0x0c, 0x00, 0x0c, 0x00, 0x0b, 0x00, 0x00, 0x00,
  0x00, 0x00, 0x04, 0x00, 0x0c, 0x00, 0x00, 0x00, 0x16, 0x00, 0x00, 0x00,
  0x00, 0x00, 0x00, 0x16
};
unsigned int model_files_model_tflite_len = 9520;
